{
  "version": "1.0",
  "truncation": {
    "direction": "Right",
    "max_length": 256,
    "strategy": "LongestFirst",
    "stride": 0
  },
  "padding": null,
  "added_tokens": [
    {
      "id": 0,
      "content": "<|end_of_text|>",
      "single_word": false,
      "lstrip": false,
      "rstrip": false,
      "normalized": false,
      "special": true
    },
    {
      "id": 1,
      "content": "<|begin_of_text|>",
      "single_word": false,
      "lstrip": false,
      "rstrip": false,
      "normalized": false,
      "special": true
    },
    {
      "id": 2,
      "content": "<|fim_prefix|>",
      "single_word": false,
      "lstrip": false,
      "rstrip": false,
      "normalized": false,
      "special": true
    },
    {
      "id": 3,
      "content": "<|fim_middle|>",
      "single_word": false,
      "lstrip": false,
      "rstrip": false,
      "normalized": false,
      "special": true
    },
    {
      "id": 4,
      "content": "<|fim_suffix|>",
      "single_word": false,
      "lstrip": false,
      "rstrip": false,
      "normalized": false,
      "special": true
    },
    {
      "id": 5,
      "content": "<|fim_pad|>",
      "single_word": false,
      "lstrip": false,
      "rstrip": false,
      "normalized": false,
      "special": true
    },
    {
      "id": 6,
      "content": "<|file_name|>",
      "single_word": false,
      "lstrip": false,
      "rstrip": false,
      "normalized": false,
      "special": true
    },
    {
      "id": 7,
      "content": "<|repo_name|>",
      "single_word": false,
      "lstrip": false,
      "rstrip": false,
      "normalized": false,
      "special": true
    },
    {
      "id": 8,
      "content": "<|turn_start|>",
      "single_word": false,
      "lstrip": false,
      "rstrip": false,
      "normalized": false,
      "special": true
    },
    {
      "id": 9,
      "content": "<|turn_end|>",
      "single_word": false,
      "lstrip": false,
      "rstrip": false,
      "normalized": false,
      "special": true
    },
    {
      "id": 10,
      "content": "<tools>",
      "single_word": false,
      "lstrip": false,
      "rstrip": false,
      "normalized": false,
      "special": false
    },
    {
      "id": 11,
      "content": "</tools>",
      "single_word": false,
      "lstrip": false,
      "rstrip": false,
      "normalized": false,
      "special": false
    },
    {
      "id": 12,
      "content": "<tool_call>",
      "single_word": false,
      "lstrip": false,
      "rstrip": false,
      "normalized": false,
      "special": false
    },
    {
      "id": 13,
      "content": "</tool_call>",
      "single_word": false,
      "lstrip": false,
      "rstrip": false,
      "normalized": false,
      "special": false
    },
    {
      "id": 14,
      "content": "<tool_response>",
      "single_word": false,
      "lstrip": false,
      "rstrip": false,
      "normalized": false,
      "special": false
    },
    {
      "id": 15,
      "content": "</tool_response>",
      "single_word": false,
      "lstrip": false,
      "rstrip": false,
      "normalized": false,
      "special": false
    },
    {
      "id": 16,
      "content": "<think>",
      "single_word": false,
      "lstrip": false,
      "rstrip": false,
      "normalized": false,
      "special": false
    },
    {
      "id": 17,
      "content": "</think>",
      "single_word": false,
      "lstrip": false,
      "rstrip": false,
      "normalized": false,
      "special": false
    },
    {
      "id": 18,
      "content": "<|image_break|>",
      "single_word": false,
      "lstrip": false,
      "rstrip": false,
      "normalized": false,
      "special": true
    },
    {
      "id": 19,
      "content": "<|image_sep|>",
      "single_word": false,
      "lstrip": false,
      "rstrip": false,
      "normalized": false,
      "special": true
    },
    {
      "id": 20,
      "content": "<|image_start|>",
      "single_word": false,
      "lstrip": false,
      "rstrip": false,
      "normalized": false,
      "special": true
    },
    {
      "id": 21,
      "content": "<|image_end|>",
      "single_word": false,
      "lstrip": false,
      "rstrip": false,
      "normalized": false,
      "special": true
    },
    {
      "id": 22,
      "content": "<|image|>",
      "single_word": false,
      "lstrip": false,
      "rstrip": false,
      "normalized": false,
      "special": true
    },
    {
      "id": 23,
      "content": "[MASK]",
      "single_word": false,
      "lstrip": false,
      "rstrip": false,
      "normalized": false,
      "special": true
    },
    {
      "id": 24,
      "content": "[CLS]",
      "single_word": false,
      "lstrip": false,
      "rstrip": false,
      "normalized": false,
      "special": true
    },
    {
      "id": 25,
      "content": "[SEP]",
      "single_word": false,
      "lstrip": false,
      "rstrip": false,
      "normalized": false,
      "special": true
    },
    {
      "id": 26,
      "content": "[EOS]",
      "single_word": false,
      "lstrip": false,
      "rstrip": false,
      "normalized": false,
      "special": true
    },
    {
      "id": 27,
      "content": "[BOS]",
      "single_word": false,
      "lstrip": false,
      "rstrip": false,
      "normalized": false,
      "special": true
    },
    {
      "id": 28,
      "content": "[PAD]",
      "single_word": false,
      "lstrip": false,
      "rstrip": false,
      "normalized": false,
      "special": true
    },
    {
      "id": 29,
      "content": "<|unused_27|>",
      "single_word": false,
      "lstrip": false,
      "rstrip": false,
      "normalized": false,
      "special": true
    },
    {
      "id": 30,
      "content": "<|unused_28|>",
      "single_word": false,
      "lstrip": false,
      "rstrip": false,
      "normalized": false,
      "special": true
    },
    {
      "id": 31,
      "content": "<|unused_29|>",
      "single_word": false,
      "lstrip": false,
      "rstrip": false,
      "normalized": false,
      "special": true
    },
    {
      "id": 32,
      "content": "<|unused_30|>",
      "single_word": false,
      "lstrip": false,
      "rstrip": false,
      "normalized": false,
      "special": true
    },
    {
      "id": 33,
      "content": "<|unused_31|>",
      "single_word": false,
      "lstrip": false,
      "rstrip": false,
      "normalized": false,
      "special": true
    },
    {
      "id": 34,
      "content": "<|unused_32|>",
      "single_word": false,
      "lstrip": false,
      "rstrip": false,
      "normalized": false,
      "special": true
    },
    {
      "id": 35,
      "content": "<|unused_33|>",
      "single_word": false,
      "lstrip": false,
      "rstrip": false,
      "normalized": false,
      "special": true
    },
    {
      "id": 36,
      "content": "<|unused_34|>",
      "single_word": false,
      "lstrip": false,
      "rstrip": false,
      "normalized": false,
      "special": true
    },
    {
      "id": 37,
      "content": "<|unused_35|>",
      "single_word": false,
      "lstrip": false,
      "rstrip": false,
      "normalized": false,
      "special": true
    },
    {
      "id": 38,
      "content": "<|unused_36|>",
      "single_word": false,
      "lstrip": false,
      "rstrip": false,
      "normalized": false,
      "special": true
    },
    {
      "id": 39,
      "content": "<|unused_37|>",
      "single_word": false,
      "lstrip": false,
      "rstrip": false,
      "normalized": false,
      "special": true
    },
    {
      "id": 40,
      "content": "<|unused_38|>",
      "single_word": false,
      "lstrip": false,
      "rstrip": false,
      "normalized": false,
      "special": true
    },
    {
      "id": 41,
      "content": "<|unused_39|>",
      "single_word": false,
      "lstrip": false,
      "rstrip": false,
      "normalized": false,
      "special": true
    },
    {
      "id": 42,
      "content": "<|unused_40|>",
      "single_word": false,
      "lstrip": false,
      "rstrip": false,
      "normalized": false,
      "special": true
    },
    {
      "id": 43,
      "content": "<|unused_41|>",
      "single_word": false,
      "lstrip": false,
      "rstrip": false,
      "normalized": false,
      "special": true
    },
    {
      "id": 44,
      "content": "<|unused_42|>",
      "single_word": false,
      "lstrip": false,
      "rstrip": false,
      "normalized": false,
      "special": true
    },
    {
      "id": 45,
      "content": "<|unused_43|>",
      "single_word": false,
      "lstrip": false,
      "rstrip": false,
      "normalized": false,
      "special": true
    },
    {
      "id": 46,
      "content": "<|unused_44|>",
      "single_word": false,
      "lstrip": false,
      "rstrip": false,
      "normalized": false,
      "special": true
    },
    {
      "id": 47,
      "content": "<|unused_45|>",
      "single_word": false,
      "lstrip": false,
      "rstrip": false,
      "normalized": false,
      "special": true
    },
    {
      "id": 48,
      "content": "<|unused_46|>",
      "single_word": false,
      "lstrip": false,
      "rstrip": false,
      "normalized": false,
      "special": true
    },
    {
      "id": 49,
      "content": "<|unused_47|>",
      "single_word": false,
      "lstrip": false,
      "rstrip": false,
      "normalized": false,
      "special": true
    },
    {
      "id": 50,
      "content": "<|unused_48|>",
      "single_word": false,
      "lstrip": false,
      "rstrip": false,
      "normalized": false,
      "special": true
    },
    {
      "id": 51,
      "content": "<|unused_49|>",
      "single_word": false,
      "lstrip": false,
      "rstrip": false,
      "normalized": false,
      "special": true
    }
  ],
  "normalizer": null,
  "pre_tokenizer": {
    "type": "Sequence",
    "pretokenizers": [
      {
        "type": "Split",
        "pattern": {
          "Regex": "[^\\r\\n\\p{L}\\p{N}]?[\\p{Lu}\\p{Lt}\\p{Lm}\\p{Lo}\\p{M}]*[\\p{Ll}\\p{Lm}\\p{Lo}\\p{M}]+(?i:'s|'t|'re|'ve|'m|'ll|'d)?|[^\\r\\n\\p{L}\\p{N}]?[\\p{Lu}\\p{Lt}\\p{Lm}\\p{Lo}\\p{M}]+[\\p{Ll}\\p{Lm}\\p{Lo}\\p{M}]*(?i:'s|'t|'re|'ve|'m|'ll|'d)?|\\p{N}{1,3}| ?[^\\s\\p{L}\\p{N}]+[\\r\\n/]*|\\s*[\\r\\n]+|\\s+(?!\\S)|\\s+\n"
        },
        "behavior": "Isolated",
        "invert": false
      },
      {
        "type": "ByteLevel",
        "add_prefix_space": false,
        "trim_offsets": true,
        "use_regex": false
      }
    ]
  },
  "post_processor": {
    "type": "TemplateProcessing",
    "single": [
      {
        "SpecialToken": {
          "id": "<|begin_of_text|>",
          "type_id": 0
        }
      },
      {
        "Sequence": {
          "id": "A",
          "type_id": 0
        }
      }
    ],
    "pair": [
      {
        "SpecialToken": {
          "id": "<|begin_of_text|>",
          "type_id": 0
        }
      },
      {
        "Sequence": {
          "id": "A",
          "type_id": 0
        }
      },
      {
        "SpecialToken": {
          "id": "<|begin_of_text|>",
          "type_id": 1
        }
      },
      {
        "Sequence": {
          "id": "B",
          "type_id": 1
        }
      }
    ],
    "special_tokens": {
      "<|begin_of_text|>": {
        "id": "<|begin_of_text|>",
        "ids": [
          1
        ],
        "tokens": [
          "<|begin_of_text|>"
        ]
      }
    }
  },
  "decoder": {
    "type": "Sequence",
    "decoders": [
      {
        "type": "ByteLevel",
        "add_prefix_space": true,
        "trim_offsets": true,
        "use_regex": true
      }
    ]
  },
  "model": {
    "type": "BPE",
    "dropout": null,
    "unk_token": null,
    "continuing_subword_prefix": null,
    "end_of_word_suffix": null,
    "fuse_unk": false,
    "byte_fallback": false,
    "ignore_merges": false,
    "vocab": {
      "<|end_of_text|>": 0,
      "<|begin_of_text|>": 1,
      "<|fim_prefix|>": 2,
      "<|fim_middle|>": 3,
      "<|fim_suffix|>": 4,
      "<|fim_pad|>": 5,
      "<|file_name|>": 6,
      "<|repo_name|>": 7,
      "<|turn_start|>": 8,
      "<|turn_end|>": 9,
      "<tools>": 10,
      "</tools>": 11,
      "<tool_call>": 12,
      "</tool_call>": 13,
      "<tool_response>": 14,
      "</tool_response>": 15,
      "<think>": 16,
      "</think>": 17,
      "<|image_break|>": 18,
      "<|image_sep|>": 19,
      "<|image_start|>": 20,
      "<|image_end|>": 21,
      "<|image|>": 22,
      "[MASK]": 23,
      "[CLS]": 24,
      "[SEP]": 25,
      "[EOS]": 26,
      "[BOS]": 27,
      "[PAD]": 28,
      "<|unused_27|>": 29,
      "<|unused_28|>": 30,
      "<|unused_29|>": 31,
      "<|unused_30|>": 32,
      "<|unused_31|>": 33,
      "<|unused_32|>": 34,
      "<|unused_33|>": 35,
      "<|unused_34|>": 36,
      "<|unused_35|>": 37,
      "<|unused_36|>": 38,
      "<|unused_37|>": 39,
      "<|unused_38|>": 40,
      "<|unused_39|>": 41,
      "<|unused_40|>": 42,
      "<|unused_41|>": 43,
      "<|unused_42|>": 44,
      "<|unused_43|>": 45,
      "<|unused_44|>": 46,
      "<|unused_45|>": 47,
      "<|unused_46|>": 48,
      "<|unused_47|>": 49,
      "<|unused_48|>": 50,
      "<|unused_49|>": 51,
      "!": 52,
      "\"": 53,
      "#": 54,
      "$": 55,
      "%": 56,
      "&": 57,
      "'": 58,
      "(": 59,
      ")": 60,
      "*": 61,
      "+": 62,
      ",": 63,
      "-": 64,
      ".": 65,
      "/": 66,
      "0": 67,
      "1": 68,
      "2": 69,
      "3": 70,
      "4": 71,
      "5": 72,
      "6": 73,
      "7": 74,
      "8": 75,
      "9": 76,
      ":": 77,
      ";": 78,
      "<": 79,
      "=": 80,
      ">": 81,
      "?": 82,
      "@": 83,
      "A": 84,
      "B": 85,
      "C": 86,
      "D": 87,
      "E": 88,
      "F": 89,
      "G": 90,
      "H": 91,
      "I": 92,
      "J": 93,
      "K": 94,
      "L": 95,
      "M": 96,
      "N": 97,
      "O": 98,
      "P": 99,
      "Q": 100,
      "R": 101,
      "S": 102,
      "T": 103,
      "U": 104,
      "V": 105,
      "W": 106,
      "X": 107,
      "Y": 108,
      "Z": 109,
      "[": 110,
      "\\": 111,
      "]": 112,
      "^": 113,
      "_": 114,
      "`": 115,
      "a": 116,
      "b": 117,
      "c": 118,
      "d": 119,
      "e": 120,
      "f": 121,
      "g": 122,
      "h": 123,
      "i": 124,
      "j": 125,
      "k": 126,
      "l": 127,
      "m": 128,
      "n": 129,
      "o": 130,
      "p": 131,
      "q": 132,
      "r": 133,
      "s": 134,
      "t": 135,
      "u": 136,
      "v": 137,
      "w": 138,
      "x": 139,
      "y": 140,
      "z": 141,
      "{": 142,
      "|": 143,
      "}": 144,
      "~": 145,
      "¡": 146,
      "¢": 147,
      "£": 148,
      "¤": 149,
      "¥": 150,
      "¦": 151,
      "§": 152,
      "¨": 153,
      "©": 154,
      "ª": 155,
      "«": 156,
      "¬": 157,
      "®": 158,
      "¯": 159,
      "°": 160,
      "±": 161,
      "²": 162,
      "³": 163,
      "´": 164,
      "µ": 165,
      "¶": 166,
      "·": 167,
      "¸": 168,
      "¹": 169,
      "º": 170,
      "»": 171,
      "¼": 172,
      "½": 173,
      "¾": 174,
      "¿": 175,
      "Â": 176,
      "Ã": 177,
      "Ä": 178,
      "Å": 179,
      "Æ": 180,
      "Ç": 181,
      "È": 182,
      "É": 183,
      "Ê": 184,
      "Ë": 185,
      "Ì": 186,
      "Í": 187,
      "Î": 188,
      "Ï": 189,
      "Ð": 190,
      "Ñ": 191,
      "Ò": 192,
      "Ó": 193,
      "Ô": 194,
      "Õ": 195,
      "Ö": 196,
      "×": 197,
      "Ø": 198,
      "Ù": 199,
      "Ú": 200,
      "Û": 201,
      "Ü": 202,
      "Ý": 203,
      "Þ": 204,
      "ß": 205,
      "à": 206,
      "á": 207,
      "â": 208,
      "ã": 209,
      "ä": 210,
      "å": 211,
      "æ": 212,
      "ç": 213,
      "è": 214,
      "é": 215,
      "ê": 216,
      "ë": 217,
      "ì": 218,
      "í": 219,
      "î": 220,
      "ï": 221,
      "ð": 222,
      "ñ": 223,
      "ò": 224,
      "ó": 225,
      "ô": 226,
      "Ā": 227,
      "ā": 228,
      "Ă": 229,
      "ă": 230,
      "Ą": 231,
      "ą": 232,
      "Ć": 233,
      "ć": 234,
      "Ĉ": 235,
      "ĉ": 236,
      "Ċ": 237,
      "ċ": 238,
      "Č": 239,
      "č": 240,
      "Ď": 241,
      "ď": 242,
      "Đ": 243,
      "đ": 244,
      "Ē": 245,
      "ē": 246,
      "Ĕ": 247,
      "ĕ": 248,
      "Ė": 249,
      "ė": 250,
      "Ę": 251,
      "ę": 252,
      "Ě": 253,
      "ě": 254,
      "Ĝ": 255,
      "ĝ": 256,
      "Ğ": 257,
      "ğ": 258,
      "Ġ": 259,
      "ġ": 260,
      "Ģ": 261,
      "ģ": 262,
      "Ĥ": 263,
      "ĥ": 264,
      "Ħ": 265,
      "ħ": 266,
      "Ĩ": 267,
      "ĩ": 268,
      "Ī": 269,
      "ī": 270,
      "Ĭ": 271,
      "ĭ": 272,
      "Į": 273,
      "į": 274,
      "İ": 275,
      "ı": 276,
      "Ĳ": 277,
      "ĳ": 278,
      "Ĵ": 279,
      "ĵ": 280,
      "Ķ": 281,
      "ķ": 282,
      "ĸ": 283,
      "Ĺ": 284,
      "ĺ": 285,
      "Ļ": 286,
      "ļ": 287,
      "Ľ": 288,
      "ľ": 289,
      "Ŀ": 290,
      "ŀ": 291,
      "Ł": 292,
      "ł": 293,
      "Ń": 294,
      "ĠĠ": 295,
      "er": 296,
      "in": 297,
      "Ġt": 298,
      "Ġa": 299,
      "on": 300,
      "en": 301,
      "he": 302,
      "ĠĠĠĠ": 303,
      "es": 304,
      "an": 305,
      "or": 306,
      "Ġs": 307,
      "at": 308,
      "à¤": 309,
      "Ġd": 310,
      "ar": 311,
      "is": 312,
      "Ġthe": 313,
      "Ġì": 314,
      "Ġc": 315,
      "al": 316,
      "it": 317,
      "re": 318,
      "Ġp": 319,
      "Ġo": 320,
      "Ġá": 321,
      "ed": 322,
      "Ġw": 323,
      "Ġf": 324,
      "as": 325,
      "ic": 326,
      "Ġb": 327,
      "le": 328,
      "ĊĊ": 329,
      "nd": 330,
      "Ġm": 331,
      "Ġin": 332,
      "ro": 333,
      "ing": 334,
      "ion": 335,
      "Ġë": 336,
      "el": 337,
      "Ġof": 338,
      "ĠĠĠ": 339,
      "ìĿ": 340,
      "ent": 341,
      "ĠS": 342,
      "ou": 343,
      "Ġl": 344,
      "il": 345,
      "Ġand": 346,
      "et": 347,
      "am": 348,
      "st": 349,
      "Ġh": 350,
      "om": 351,
      "ĠC": 352,
      "ĠA": 353,
      "Ġto": 354,
      "Ġn": 355,
      "à¸": 356,
      "ad": 357,
      "ĠT": 358,
      "ch": 359,
      "Ġde": 360,
      "Ġ(": 361,
      "ol": 362,
      "ur": 363,
      "ĠĠĠĠĠĠĠĠ": 364,
      "ĠM": 365,
      "Ġe": 366,
      "ct": 367,
      "Ġà¤": 368,
      "à¥": 369,
      "un": 370,
      "Ġáħ": 371,
      "ĠáĦ": 372,
      "id": 373,
      "im": 374,
      "íķ": 375,
      "ĠP": 376,
      "ĠB": 377,
      "Ġth": 378,
      "ut": 379,
      "Ġê": 380,
      "us": 381,
      "âĢ": 382,
      "Ġg": 383,
      "ig": 384,
      "ãģ": 385,
      "os": 386,
      "Ġre": 387,
      "Ġv": 388,
      "ĠI": 389,
      "ra": 390,
      "em": 391,
      "19": 392,
      "20": 393,
      "ot": 394,
      "iv": 395,
      "ĠR": 396,
      "ĠD": 397,
      "ëĭ": 398,
      "ul": 399,
      "ĠL": 400,
      ".ĊĊ": 401,
      "ir": 402,
      "ation": 403,
      "ce": 404,
      "ĠH": 405,
      "ter": 406,
      ".Ċ": 407,
      "qu": 408,
      "est": 409,
      "##": 410,
      "ĠF": 411,
      "um": 412,
      "ìĹ": 413,
      "ers": 414,
      "Ġfor": 415,
      "ist": 416,
      "ow": 417,
      "ay": 418,
      "ĠE": 419,
      "ag": 420,
      "ĠG": 421,
      "ie": 422,
      "th": 423,
      "Ã©": 424,
      "Ġis": 425,
      "ĠN": 426,
      "and": 427,
      "Ġon": 428,
      "Ġst": 429,
      "Ġr": 430,
      "od": 431,
      "ĠĠĠĠĠĠĠ": 432,
      "ac": 433,
      "ĠW": 434,
      "ìĿ´": 435,
      "Ġcon": 436,
      "ly": 437,
      "Ġí": 438,
      "ëĭ¤": 439,
      "if": 440,
      "Ġy": 441,
      "Ġbe": 442,
      "Ġal": 443,
      "ab": 444,
      "ith": 445,
      "Ġas": 446,
      "Ġk": 447,
      "Ġ=": 448,
      "ĠÐ": 449,
      "ãĤ": 450,
      "ê³": 451,
      ")Ċ": 452,
      "ëĬ": 453,
      "ãĥ": 454,
      "ĠáĨ": 455,
      "ĠJ": 456,
      "ri": 457,
      "te": 458,
      "ess": 459,
      "Ġwas": 460,
      "Ġ\"": 461,
      "oc": 462,
      "ate": 463,
      "Ġse": 464,
      "Ġcom": 465,
      ";Ċ": 466,
      "ëĬĶ": 467,
      "Ġan": 468,
      "ap": 469,
      "ver": 470,
      "Ġwh": 471,
      "op": 472,
      "ãĢ": 473,
      "ia": 474,
      "ĠO": 475,
      "Ġpro": 476,
      "ìĦ": 477,
      "se": 478,
      "Ġwith": 479,
      "ĠK": 480,
      "av": 481,
      "ak": 482,
      "ort": 483,
      "up": 484,
      "Ð¾": 485,
      "à¤¾": 486,
      "ê°": 487,
      "end": 488,
      "ĠThe": 489,
      "ìĹĲ": 490,
      "ï¼": 491,
      "ub": 492,
      "ere": 493,
      "art": 494,
      "ìł": 495,
      "ĠìĿ": 496,
      "pe": 497,
      "--": 498,
      "ant": 499,
      "Ø§": 500,
      "ìŀ": 501,
      "âĢĵ": 502,
      "ë¡": 503,
      "rom": 504,
      "Ġat": 505,
      "ì§": 506,
      "ill": 507,
      "Ġthat": 508,
      "our": 509,
      "ich": 510,
      "Ġen": 511,
      "und": 512,
      "ud": 513,
      "ain": 514,
      "Ðµ": 515,
      "íķĺ": 516,
      "Ġby": 517,
      "201": 518,
      "og": 519,
      "Ð°": 520,
      "ber": 521,
      "ĠU": 522,
      "Ġit": 523,
      "ìĿĦ": 524,
      "ĠV": 525,
      "ìĿĺ": 526,
      "Ġla": 527,
      "Ġun": 528,
      "ang": 529,
      "all": 530,
      "Ġle": 531,
      "Ġhe": 532,
      "Ð¸": 533,
      "Ġ{": 534,
      "200": 535,
      "ë¡ľ": 536,
      "Ġìŀ": 537,
      "ĠĠĠĠĠĠĠĠĠĠĠ": 538,
      "ity": 539,
      "ip": 540,
      "ard": 541,
      "ine": 542,
      "ue": 543,
      "ew": 544,
      "igh": 545,
      "Ġqu": 546,
      "Ġor": 547,
      "à¥ĩ": 548,
      "ies": 549,
      "à¤°": 550,
      "Ġex": 551,
      "ÙĦ": 552,
      "'s": 553,
      "ìĭ": 554,
      "Ġ-": 555,
      "ê³ł": 556,
      "ell": 557,
      "ä¸": 558,
      "à¹": 559,
      "iz": 560,
      "00": 561,
      "ëı": 562,
      "ment": 563,
      "//": 564,
      "Ġfrom": 565,
      "ame": 566,
      "Ġch": 567,
      "ov": 568,
      "íķľ": 569,
      "¸°": 570,
      "ë¦": 571,
      "ë¥": 572,
      "),": 573,
      "ial": 574,
      "ìļ": 575,
      "ction": 576,
      "ĠSt": 577,
      "ìķ": 578,
      "pl": 579,
      "Ġj": 580,
      "pt": 581,
      "á»": 582,
      "port": 583,
      "ug": 584,
      "ass": 585,
      "ìľ": 586,
      "ld": 587,
      "Ð½": 588,
      "ĠÃ": 589,
      "ĠIn": 590,
      "Ġpr": 591,
      "ian": 592,
      "à¥į": 593,
      "ec": 594,
      "Ã³": 595,
      "ive": 596,
      "ĠáĦĭ": 597,
      "ÑĤ": 598,
      "ê°Ģ": 599,
      "Ġìł": 600,
      "ÑĢ": 601,
      "ì§Ģ": 602,
      "ik": 603,
      "Ĥ¬": 604,
      "ust": 605,
      "Ġ}": 606,
      "ore": 607,
      "Ñģ": 608,
      "Ġare": 609,
      "18": 610,
      "ost": 611,
      "nt": 612,
      "ast": 613,
      "age": 614,
      "ure": 615,
      "Ġpl": 616,
      "ord": 617,
      "ï¼Į": 618,
      "ire": 619,
      "ran": 620,
      "ne": 621,
      ");Ċ": 622,
      "ìĦľ": 623,
      "êµ": 624,
      "ĠCh": 625,
      "ind": 626,
      "ge": 627,
      "ff": 628,
      "ìĿĢ": 629,
      "Ġê°": 630,
      "Īëĭ¤": 631,
      "ĮĢ": 632,
      "Ð¾Ð": 633,
      "ê²": 634,
      "Ġ{Ċ": 635,
      "ok": 636,
      "à¤¾à¤": 637,
      "pr": 638,
      "ult": 639,
      "Ä±": 640,
      "ëĵ": 641,
      "cl": 642,
      "ah": 643,
      "ìĬ": 644,
      "ight": 645,
      "ìĸ": 646,
      "ong": 647,
      "ary": 648,
      "čĊ": 649,
      "ĠĊ": 650,
      "Ġáħ¡": 651,
      "uc": 652,
      "per": 653,
      "ĊĊĊ": 654,
      "Ġà¤ķ": 655,
      "ens": 656,
      "Ġdes": 657,
      "à¤¿": 658,
      "Ġus": 659,
      "ng": 660,
      "ë§": 661,
      "Ġìķ": 662,
      "int": 663,
      "orm": 664,
      "ack": 665,
      "ib": 666,
      "ëĤ": 667,
      "ated": 668,
      "ê¸°": 669,
      "ëıĦ": 670,
      "fer": 671,
      "ÙĬ": 672,
      "ĠRe": 673,
      "Ã¼": 674,
      "ë¦¬": 675,
      "à¥įà¤": 676,
      "ex": 677,
      "Ġthis": 678,
      "Ġë°": 679,
      "ath": 680,
      "ĠìĹ": 681,
      "ear": 682,
      "io": 683,
      "ach": 684,
      "ë¥¼": 685,
      "à¥Ģ": 686,
      "Ã¡": 687,
      "ile": 688,
      "ĉĉ": 689,
      "ĠìĿ´": 690,
      "âĢĻ": 691,
      "ice": 692,
      ",Ċ": 693,
      "Ġz": 694,
      "ect": 695,
      "ìĽ": 696,
      "Īĺ": 697,
      "Ġsh": 698,
      "to": 699,
      "10": 700,
      "con": 701,
      "ry": 702,
      "ave": 703,
      "The": 704,
      "enc": 705,
      "ÃŃ": 706,
      "Ġnot": 707,
      "ĠâĢ": 708,
      "so": 709,
      "Ġcl": 710,
      "199": 711,
      "Ġpar": 712,
      "Ġ$": 713,
      "ĠØ": 714,
      "Ġë§": 715,
      "ign": 716,
      "ide": 717,
      "ph": 718,
      "erv": 719,
      "ork": 720,
      "à¤¿à¤": 721,
      "Ġhis": 722,
      "Ġim": 723,
      "íķ´": 724,
      "ite": 725,
      "..": 726,
      "ãĢĤ": 727,
      "Ġáħµ": 728,
      "Ġund": 729,
      "de": 730,
      "::": 731,
      "()": 732,
      "ĠáĨ«": 733,
      "Ġ'": 734,
      "----": 735,
      "Ġdo": 736,
      "Ø§ÙĦ": 737,
      "Ġres": 738,
      "Ġê²": 739,
      "Ġcomp": 740,
      "ob": 741,
      "are": 742,
      "Ùħ": 743,
      "ition": 744,
      "ĠTh": 745,
      "ëł": 746,
      "Ġar": 747,
      "Ġad": 748,
      "ome": 749,
      "ical": 750,
      "out": 751,
      "urn": 752,
      "ë©": 753,
      "Ã¤": 754,
      "ime": 755,
      "tern": 756,
      "ish": 757,
      "ìĸ´": 758,
      "à¤Ĥ": 759,
      "mer": 760,
      "Ġel": 761,
      "ĠâĢĵ": 762,
      "äº": 763,
      "Ġper": 764,
      "ìľ¼": 765,
      "Ŀ¼": 766,
      "ë¶": 767,
      "ier": 768,
      "lic": 769,
      "ĠY": 770,
      "æľ": 771,
      "Ġcont": 772,
      "che": 773,
      "Ġyou": 774,
      "Ġìĭ": 775,
      "Ġap": 776,
      "able": 777,
      "ĠĠĠĠĠĠĠĠĠĠĠĠĠĠĠ": 778,
      "In": 779,
      "Ġ\\": 780,
      "ru": 781,
      "Ġwe": 782,
      "ung": 783,
      "ìĬ¤": 784,
      "Ð»": 785,
      "ìĭľ": 786,
      "ëħ": 787,
      "Ġab": 788,
      "rit": 789,
      "ase": 790,
      "ata": 791,
      "eg": 792,
      "ëĿ¼": 793,
      "ë°": 794,
      "Ġro": 795,
      "ft": 796,
      "ĠìĦ": 797,
      "Ġest": 798,
      "one": 799,
      "ric": 800,
      "ìĿ¸": 801,
      "ks": 802,
      "ther": 803,
      "ont": 804,
      "Ġì§": 805,
      "ÙĪ": 806,
      "ĠAl": 807,
      "Ġê³": 808,
      "£¼": 809,
      "ĠUn": 810,
      "Ġque": 811,
      "Ã§": 812,
      "Ġëĭ": 813,
      "ìĺ": 814,
      "ount": 815,
      "Ġder": 816,
      "ous": 817,
      "Ġwhich": 818,
      "ë³": 819,
      "çļ": 820,
      ":Ċ": 821,
      "·¸": 822,
      "act": 823,
      "ence": 824,
      "elf": 825,
      "ory": 826,
      "ace": 827,
      "==": 828,
      "**": 829,
      "ations": 830,
      "Ġhave": 831,
      "Ġi": 832,
      "Ã¶": 833,
      "cc": 834,
      "ìĥ": 835,
      "ÙĨ": 836,
      "Ġcan": 837,
      "ĠØ§ÙĦ": 838,
      "###": 839,
      "amp": 840,
      "Ġall": 841,
      "ions": 842,
      "áº": 843,
      "çļĦ": 844,
      "12": 845,
      "Ġet": 846,
      "Ġ.": 847,
      "ert": 848,
      "ë¬": 849,
      "Ġwere": 850,
      "à¥ĭ": 851,
      "ãĢģ": 852,
      "Ġdi": 853,
      "ans": 854,
      "Ġalso": 855,
      "Ġpart": 856,
      "íĸ": 857,
      "ould": 858,
      "Ġtr": 859,
      "Ġte": 860,
      ").": 861,
      "198": 862,
      "form": 863,
      "ìŀĲ": 864,
      "ual": 865,
      "Ġ*": 866,
      "Ġáħ³": 867,
      "ìĤ¬": 868,
      "Ġìĺ": 869,
      "own": 870,
      "ail": 871,
      "erm": 872,
      "ĠHe": 873,
      "Ġif": 874,
      "Ġme": 875,
      "Ġret": 876,
      "ring": 877,
      "ëŀ": 878,
      "åı": 879,
      "res": 880,
      "ĠëĤ": 881,
      "Ġhas": 882,
      "Ġsu": 883,
      "Ã£": 884,
      "Ġ|": 885,
      "der": 886,
      "Ġ&": 887,
      "ĠáĦĢ": 888,
      "ä»": 889,
      "irst": 890,
      "ìľ¼ë¡ľ": 891,
      "15": 892,
      "ãģ®": 893,
      "ents": 894,
      "à¤¨": 895,
      "iss": 896,
      "ey": 897,
      "ade": 898,
      "Ðº": 899,
      "az": 900,
      "eb": 901,
      "get": 902,
      "ep": 903,
      "oll": 904,
      "ater": 905,
      "ance": 906,
      "16": 907,
      "ĠAr": 908,
      "ember": 909,
      "ors": 910,
      "Ġ:": 911,
      "17": 912,
      "St": 913,
      "åħ": 914,
      "Ø±": 915,
      "å¤": 916,
      "ree": 917,
      "Ġbut": 918,
      "ĠMar": 919,
      "ĠIt": 920,
      "¹´": 921,
      "inal": 922,
      "Ġáħ©": 923,
      "à¸²": 924,
      "ëħĦ": 925,
      "ëį": 926,
      "Ġnew": 927,
      "ai": 928,
      "ĠáĦī": 929,
      "ann": 930,
      "du": 931,
      "gr": 932,
      "ĠĠĠĠĠĠĠĠĠĠĠĠĠĠĠĠ": 933,
      "ìķĦ": 934,
      "any": 935,
      "Ġem": 936,
      "íĻ": 937,
      "ëĮĢ": 938,
      "we": 939,
      "Ġpre": 940,
      "au": 941,
      "iel": 942,
      "wo": 943,
      "ublic": 944,
      "land": 945,
      "ìŀ¥": 946,
      "ì²": 947,
      "ëĵ¤": 948,
      "ĠìĤ¬": 949,
      "ss": 950,
      "ond": 951,
      "ild": 952,
      "202": 953,
      "Ġdis": 954,
      "ode": 955,
      "ll": 956,
      "Ã£o": 957,
      "Ġë³": 958,
      "Ġ<": 959,
      "ari": 960,
      "ëĤĺ": 961,
      "ound": 962,
      "197": 963,
      "Ġout": 964,
      "eng": 965,
      "com": 966,
      "ĠëĮĢ": 967,
      "ìĹĲìĦľ": 968,
      "les": 969,
      "Ġgo": 970,
      "ìĿ¼": 971,
      "oth": 972,
      "ĠSe": 973,
      "ê³¼": 974,
      "Ġup": 975,
      "ational": 976,
      "ëŁ": 977,
      "Ġhad": 978,
      "Ġìľ": 979,
      "Ġdel": 980,
      "ë¶Ģ": 981,
      "ool": 982,
      "vel": 983,
      "ĠìŀĪ": 984,
      "pro": 985,
      "Ñĥ": 986,
      "ose": 987,
      "Ġcomm": 988,
      "à¤ķ": 989,
      ";ĊĊ": 990,
      "ê²Į": 991,
      "Ġone": 992,
      "orn": 993,
      "Ġà¤¸": 994,
      "ĠZ": 995,
      "ĠìĪĺ": 996,
      "fter": 997,
      "Ãł": 998,
      "ĠáĨ¼": 999,
      "Ġ+": 1000,
      "Ġag": 1001,
      "\",": 1002,
      "11": 1003,
      "à¸²à¸": 1004,
      "ci": 1005,
      "ìļĶ": 1006,
      "Ġë¶": 1007,
      "Ġ//": 1008,
      "ock": 1009,
      "ëĲ": 1010,
      "lo": 1011,
      "íĺ": 1012,
      "ve": 1013,
      "ark": 1014,
      "ck": 1015,
      "ìĽĲ": 1016,
      "Ġtheir": 1017,
      "Ġfirst": 1018,
      "ìĻ": 1019,
      "ener": 1020,
      "Ġêµ": 1021,
      "Ġes": 1022,
      "Ġdie": 1023,
      "Ġsp": 1024,
      "clud": 1025,
      "aw": 1026,
      "Ġno": 1027,
      "ìłķ": 1028,
      "Ġ#": 1029,
      "sh": 1030,
      "ates": 1031,
      "oy": 1032,
      "ook": 1033,
      "ten": 1034,
      "âĢĿ": 1035,
      "old": 1036,
      "Ã³n": 1037,
      "Ġáħ¥": 1038,
      "ake": 1039,
      "ĠĠĠĠĠ": 1040,
      "ë©´": 1041,
      "Øª": 1042,
      "ĠáĦĮ": 1043,
      "14": 1044,
      "que": 1045,
      "ĠLe": 1046,
      "ada": 1047,
      "13": 1048,
      "ject": 1049,
      "Ġreturn": 1050,
      "ä½": 1051,
      "Ġ,": 1052,
      "iew": 1053,
      "rans": 1054,
      "ĠCom": 1055,
      "tt": 1056,
      "ëª": 1057,
      "å®": 1058,
      "ë²": 1059,
      "ale": 1060,
      "ìĨ": 1061,
      "ĠáĦĥ": 1062,
      "Ġ}Ċ": 1063,
      "Ð²": 1064,
      "ype": 1065,
      "yst": 1066,
      "li": 1067,
      "Ġà¤¹": 1068,
      "ons": 1069,
      "ences": 1070,
      "rib": 1071,
      "åľ": 1072,
      "aj": 1073,
      "ĠáĨ¯": 1074,
      "Ñı": 1075,
      "ement": 1076,
      "lect": 1077,
      "Ġits": 1078,
      "Ġwho": 1079,
      "Ġso": 1080,
      "Ġne": 1081,
      "åĲ": 1082,
      "ings": 1083,
      "ì£¼": 1084,
      "Ġëĵ": 1085,
      "íĬ": 1086,
      "ick": 1087,
      "ivers": 1088,
      "196": 1089,
      "Ġëª": 1090,
      "Ġtra": 1091,
      "Ġê°Ģ": 1092,
      "ado": 1093,
      "åĪ": 1094,
      "Ġìĥ": 1095,
      "Ġer": 1096,
      "Ġplay": 1097,
      "à¤¤": 1098,
      "Ġwork": 1099,
      "Ġam": 1100,
      "Ġê·¸": 1101,
      "à¸Ļ": 1102,
      "Ġent": 1103,
      "(\"": 1104,
      "Ġëı": 1105,
      "Ġev": 1106,
      "Ġher": 1107,
      "oh": 1108,
      "pec": 1109,
      "ts": 1110,
      "ull": 1111,
      "Ġda": 1112,
      "Ġsc": 1113,
      "Ġrec": 1114,
      "ugh": 1115,
      "row": 1116,
      "Ð¼": 1117,
      "Ġáħ®": 1118,
      "Ġíķĺ": 1119,
      "Ġra": 1120,
      "ern": 1121,
      "ied": 1122,
      "ely": 1123,
      "çĶ": 1124,
      "ĠÄ": 1125,
      "xt": 1126,
      "¹Ħ": 1127,
      "aus": 1128,
      "gh": 1129,
      "Ø©": 1130,
      "ins": 1131,
      "Ġau": 1132,
      "êµŃ": 1133,
      "Ġì§Ģ": 1134,
      "Ġover": 1135,
      "íĥ": 1136,
      "Ġyear": 1137,
      "ë¯": 1138,
      "ë§Į": 1139,
      "ì¹": 1140,
      "ìĪĺ": 1141,
      "Ñĭ": 1142,
      "Ġà¤®": 1143,
      "par": 1144,
      "ìĥģ": 1145,
      "Ġ[": 1146,
      "ĠPro": 1147,
      "me": 1148,
      "ific": 1149,
      "êµ¬": 1150,
      "Ġop": 1151,
      "ise": 1152,
      "ĠáĦħ": 1153,
      "Ã¨": 1154,
      "ize": 1155,
      "Ġwill": 1156,
      "ĠÃł": 1157,
      "anc": 1158,
      "Ġpe": 1159,
      "olog": 1160,
      "Ġê¸°": 1161,
      "emb": 1162,
      "ĠAn": 1163,
      "ĠDe": 1164,
      "ĠáĦĴ": 1165,
      "ma": 1166,
      "Ġëĭ¤": 1167,
      "oint": 1168,
      "Ġíķ": 1169,
      "Ġfil": 1170,
      "Ġver": 1171,
      "ĠìķĦ": 1172,
      "ĠSh": 1173,
      "ix": 1174,
      "Ġthey": 1175,
      "hed": 1176,
      "Âł": 1177,
      "¡°": 1178,
      "å¹´": 1179,
      "ij": 1180,
      "Ġtime": 1181,
      "Ġtwo": 1182,
      "25": 1183,
      "íĬ¸": 1184,
      "ited": 1185,
      "æĸ": 1186,
      "Ġìĭľ": 1187,
      "--------": 1188,
      "Ġreg": 1189,
      "import": 1190,
      "ìłľ": 1191,
      "red": 1192,
      "ĠÃ©": 1193,
      "Ġass": 1194,
      "Ġset": 1195,
      "ward": 1196,
      "Ġinter": 1197,
      "ica": 1198,
      "cess": 1199,
      "ĠSch": 1200,
      "ìĦ±": 1201,
      "Ġob": 1202,
      "ek": 1203,
      "¤ĳ": 1204,
      "ystem": 1205,
      "put": 1206,
      "uk": 1207,
      "ina": 1208,
      "ìłģ": 1209,
      "Ġval": 1210,
      "Ġcol": 1211,
      "Ġbeen": 1212,
      "ren": 1213,
      "ÅŁ": 1214,
      "Ġmore": 1215,
      "Ø¯": 1216,
      "Ġcons": 1217,
      "let": 1218,
      "à¤¸": 1219,
      "att": 1220,
      "Ġco": 1221,
      "å°": 1222,
      "Ġph": 1223,
      "Ġother": 1224,
      "ĠìłĦ": 1225,
      "}Ċ": 1226,
      "30": 1227,
      "Ġà¤ª": 1228,
      "pos": 1229,
      "Ġoff": 1230,
      ")ĊĊ": 1231,
      "ĠNew": 1232,
      "ãģ«": 1233,
      "Ġact": 1234,
      "ien": 1235,
      "Ġmod": 1236,
      "ê¸": 1237,
      "als": 1238,
      "Ġyour": 1239,
      "Ġsup": 1240,
      "ient": 1241,
      "Ġdef": 1242,
      "ìłĦ": 1243,
      "Ġconst": 1244,
      "Ġinclud": 1245,
      "ics": 1246,
      "Ġgr": 1247,
      "194": 1248,
      "Ġáħ§": 1249,
      "ferences": 1250,
      "æĹ": 1251,
      "Ġget": 1252,
      "Äĥ": 1253,
      "ict": 1254,
      "195": 1255,
      "´Ģ": 1256,
      "à¥Ī": 1257,
      "\"Ċ": 1258,
      "Ġ/": 1259,
      "Ġdu": 1260,
      "Ġíķľ": 1261,
      "Ð´": 1262,
      "ļĮ": 1263,
      "Ġ||": 1264,
      "ased": 1265,
      "à¸£": 1266,
      "Ġatt": 1267,
      "man": 1268,
      "ĠQ": 1269,
      "ãĥ¼": 1270,
      "ys": 1271,
      "ext": 1272,
      "ular": 1273,
      "Ġê²ĥ": 1274,
      "eth": 1275,
      "Ġbu": 1276,
      "à¸Ń": 1277,
      "íĻĶ": 1278,
      "Ġman": 1279,
      "gan": 1280,
      "Ġint": 1281,
      "æĺ": 1282,
      "Ġnum": 1283,
      "Ġser": 1284,
      "Ġserv": 1285,
      "ze": 1286,
      "Ġpublic": 1287,
      "Ġav": 1288,
      "æĪ": 1289,
      "=\"": 1290,
      "ident": 1291,
      "Ġloc": 1292,
      "ays": 1293,
      "ax": 1294,
      "ÑģÑĤ": 1295,
      "à¹Ī": 1296,
      "arg": 1297,
      "Ġum": 1298,
      "ps": 1299,
      "ÅĤ": 1300,
      "Ġìĸ": 1301,
      "ì°": 1302,
      "ional": 1303,
      "uring": 1304,
      "ëĭĪëĭ¤": 1305,
      "Ġbec": 1306,
      "ëĵľ": 1307,
      "ton": 1308,
      "ral": 1309,
      "oss": 1310,
      "Ġind": 1311,
      "amb": 1312,
      "Re": 1313,
      "ough": 1314,
      "nc": 1315,
      "ê±": 1316,
      "Ġpol": 1317,
      "ash": 1318,
      "Ġwhen": 1319,
      "Ġbet": 1320,
      "ìĻĢ": 1321,
      "Ùģ": 1322,
      "ë³´": 1323,
      "ëıĻ": 1324,
      "Ġacc": 1325,
      "iÃ³n": 1326,
      "Ġë¬": 1327,
      "ament": 1328,
      "Ãª": 1329,
      "Ġinto": 1330,
      "ĠEx": 1331,
      "à¥ģ": 1332,
      "Ġform": 1333,
      "roup": 1334,
      "Ġìļ": 1335,
      "raph": 1336,
      "ner": 1337,
      "ield": 1338,
      "its": 1339,
      "ä¸Ģ": 1340,
      "Ġkn": 1341,
      "ĠÄĳ": 1342,
      "ove": 1343,
      "ike": 1344,
      "ames": 1345,
      "Ġafter": 1346,
      "à¹Ģ": 1347,
      "cept": 1348,
      "ta": 1349,
      "Ùĩ": 1350,
      ".s": 1351,
      "ĠÐ¿": 1352,
      "co": 1353,
      "reat": 1354,
      "Ġsub": 1355,
      "Th": 1356,
      "ĠØ§ÙĦØ": 1357,
      "une": 1358,
      "åŃ": 1359,
      "round": 1360,
      "ĠÂ": 1361,
      "oot": 1362,
      "air": 1363,
      "000": 1364,
      "ĠáĨ¨": 1365,
      "ìĤ": 1366,
      "Ġfe": 1367,
      "Ġë³´": 1368,
      "Ø§Ø": 1369,
      "Ġinst": 1370,
      "ĠCl": 1371,
      "ëĭĪ": 1372,
      "ple": 1373,
      "Ġ}ĊĊ": 1374,
      "Ġrel": 1375,
      "sp": 1376,
      "ìļ©": 1377,
      "à¤²": 1378,
      "ink": 1379,
      "Ġpor": 1380,
      "à¤¹": 1381,
      "son": 1382,
      "orld": 1383,
      "ĠâĢľ": 1384,
      "Ġabout": 1385,
      "ĠíĻ": 1386,
      "ãĤĭ": 1387,
      "ange": 1388,
      "ret": 1389,
      "Ġwould": 1390,
      "âĢĻs": 1391,
      "itt": 1392,
      "ican": 1393,
      "à¸ģ": 1394,
      "Ġsur": 1395,
      "vent": 1396,
      "ute": 1397,
      "Ġac": 1398,
      "ank": 1399,
      "uch": 1400,
      "Ġself": 1401,
      "Ġìłľ": 1402,
      "====": 1403,
      "pon": 1404,
      "ÑĮ": 1405,
      "ĠáĦĤ": 1406,
      "ym": 1407,
      "íĦ": 1408,
      "Ġ)": 1409,
      "ĠAmer": 1410,
      "na": 1411,
      "Ġunder": 1412,
      "pect": 1413,
      "Ġthere": 1414,
      "esent": 1415,
      "amil": 1416,
      "ĠìĨ": 1417,
      "Ġfun": 1418,
      "Ġsa": 1419,
      ">Ċ": 1420,
      "val": 1421,
      "24": 1422,
      "ron": 1423,
      "erson": 1424,
      "ä¹": 1425,
      "Ġìłķ": 1426,
      "íĶ": 1427,
      "ĠĠĠĠĠĠĠĠĠĠĠĠĠĠĠĠĠĠĠ": 1428,
      "Ġclass": 1429,
      "ines": 1430,
      "rough": 1431,
      "wn": 1432,
      "ĠPr": 1433,
      "ator": 1434,
      "Ġden": 1435,
      "ĠCon": 1436,
      "Ġed": 1437,
      "ì¹ĺ": 1438,
      "à¥įà¤°": 1439,
      "193": 1440,
      "ative": 1441,
      "Ġáħ¦": 1442,
      "Ġlos": 1443,
      "app": 1444,
      "ï¼ī": 1445,
      "ï¼Ī": 1446,
      "å¾": 1447,
      "ars": 1448,
      "ke": 1449,
      "è¿": 1450,
      "Ġtrans": 1451,
      "ler": 1452,
      "Ġíĺ": 1453,
      "ason": 1454,
      "Ġsome": 1455,
      "ision": 1456,
      "els": 1457,
      "ais": 1458,
      "ãģŁ": 1459,
      "Ġshe": 1460,
      "Ġonly": 1461,
      "atch": 1462,
      "uss": 1463,
      "Ġprov": 1464,
      "íļĮ": 1465,
      "Ġì°": 1466,
      "Ġdist": 1467,
      "åį": 1468,
      "irect": 1469,
      "Ġbl": 1470,
      "ìĽĶ": 1471,
      "ĠâĢĶ": 1472,
      "Ġdif": 1473,
      "ollow": 1474,
      "ĠÐ²": 1475,
      "ople": 1476,
      "isch": 1477,
      "iet": 1478,
      "Ġadd": 1479,
      "ĠëĲ": 1480,
      "_{": 1481,
      "text": 1482,
      "ĠWh": 1483,
      "åĽ": 1484,
      "ãģ¨": 1485,
      "Ġì¶": 1486,
      "ë¬¸": 1487,
      "ya": 1488,
      "à¤®": 1489,
      "ĠInd": 1490,
      "ãģĦ": 1491,
      "ĠThis": 1492,
      "Ġaut": 1493,
      "duc": 1494,
      "Ġrem": 1495,
      "ìļ°": 1496,
      "ble": 1497,
      "Ġvon": 1498,
      "ces": 1499,
      "Ã©s": 1500,
      "Ġpara": 1501,
      "ara": 1502,
      "à¥ĩà¤Ĥ": 1503,
      "ating": 1504,
      "ĠáĦĩ": 1505,
      "íĸĪëĭ¤": 1506,
      "ood": 1507,
      "ĠìŀĲ": 1508,
      "sc": 1509,
      "à¸±": 1510,
      "ning": 1511,
      "à¹ī": 1512,
      "ÙĤ": 1513,
      "ÐµÐ½": 1514,
      "íķĺëĬĶ": 1515,
      "ĠFran": 1516,
      "ms": 1517,
      "ê¹": 1518,
      "22": 1519,
      "ëį°": 1520,
      "uro": 1521,
      "hip": 1522,
      "atur": 1523,
      "Ùĥ": 1524,
      "íĦ°": 1525,
      "à¸ĩ": 1526,
      "Ġche": 1527,
      "Ġsch": 1528,
      "Ġì£¼": 1529,
      "ox": 1530,
      "Ã¢": 1531,
      "Ġfl": 1532,
      "Ġles": 1533,
      "ĠìĿĺ": 1534,
      "Ġà¤ķà¥ĩ": 1535,
      "Ġmed": 1536,
      "ĠPl": 1537,
      "ĠìĿ¼": 1538,
      "ues": 1539,
      "Ġcent": 1540,
      "ìĹ¬": 1541,
      "Ġein": 1542,
      "Ñĩ": 1543,
      "50": 1544,
      "ãħ": 1545,
      "ìĿ´ëĭ¤": 1546,
      "min": 1547,
      "Ġuse": 1548,
      "Ġany": 1549,
      "ãģ¯": 1550,
      "Ĩµ": 1551,
      "]Ċ": 1552,
      "ince": 1553,
      "æĿ": 1554,
      "__": 1555,
      "ãģĹ": 1556,
      "ë©°": 1557,
      "Ġspec": 1558,
      "à¤¾à¤°": 1559,
      "ÑĢÐ°": 1560,
      "ãĥ³": 1561,
      "ty": 1562,
      "ife": 1563,
      "Ġwhere": 1564,
      "ĠCol": 1565,
      "Ġlet": 1566,
      "ution": 1567,
      "íĮ": 1568,
      "ities": 1569,
      "den": 1570,
      "ë£": 1571,
      "ìĹħ": 1572,
      "outh": 1573,
      "ower": 1574,
      "ãģ§": 1575,
      "Ġê±": 1576,
      "Ġmin": 1577,
      "ĠìĿ¸": 1578,
      "orth": 1579,
      "192": 1580,
      "100": 1581,
      "Ġthan": 1582,
      "ene": 1583,
      "ĠAd": 1584,
      "Ã¼r": 1585,
      "ctions": 1586,
      "Ġmay": 1587,
      "ê·¸": 1588,
      "ì¶": 1589,
      "ism": 1590,
      "cent": 1591,
      "23": 1592,
      "ãĤĴ": 1593,
      "Ã§Ã£o": 1594,
      "Ġmy": 1595,
      "à¹Ģà¸": 1596,
      "ouse": 1597,
      "fl": 1598,
      "Ġà¤¹à¥Ī": 1599,
      "Ġáħ¢": 1600,
      "Ġvo": 1601,
      "be": 1602,
      "ëŁ¬": 1603,
      "ror": 1604,
      "ë¹Ħ": 1605,
      "Ġstud": 1606,
      "Ġx": 1607,
      "ĠìŀĪëĭ¤": 1608,
      "Ġil": 1609,
      "Ġthen": 1610,
      "éģ": 1611,
      "ĠëĤĺ": 1612,
      "rent": 1613,
      "Ø¨": 1614,
      "_t": 1615,
      "21": 1616,
      "ĠáĦĨ": 1617,
      "ven": 1618,
      "Ġmost": 1619,
      "****": 1620,
      "iver": 1621,
      "ì§Ħ": 1622,
      "ĠPh": 1623,
      "ìĨĮ": 1624,
      "ãģ¦": 1625,
      "Ch": 1626,
      "Ġend": 1627,
      "ë§Ī": 1628,
      "ĠUnivers": 1629,
      "Ġke": 1630,
      "äºº": 1631,
      "ween": 1632,
      "fore": 1633,
      "ëĲĺ": 1634,
      "ìĤ°": 1635,
      "Ġì²": 1636,
      "yn": 1637,
      "ĠX": 1638,
      "ball": 1639,
      "ĠLa": 1640,
      "ally": 1641,
      "ico": 1642,
      "ature": 1643,
      "way": 1644,
      "ger": 1645,
      "cre": 1646,
      "Ð¾Ð²": 1647,
      "íķĻ": 1648,
      "Ġdem": 1649,
      "ĠBe": 1650,
      "self": 1651,
      "ohn": 1652,
      "ished": 1653,
      "();Ċ": 1654,
      "Ġele": 1655,
      "ìĭł": 1656,
      "ĠBr": 1657,
      "Ġì¤ĳ": 1658,
      "ĽĦ": 1659,
      "Ġdr": 1660,
      "ĠÙħ": 1661,
      "ĠÙĪ": 1662,
      "ĠCar": 1663,
      "Ġcar": 1664,
      "enn": 1665,
      "ĠOr": 1666,
      "Æ°": 1667,
      "cond": 1668,
      "####": 1669,
      "ĠReferences": 1670,
      "ãģĮ": 1671,
      "ĠÑģ": 1672,
      "ĠĠĠĠĠĠ": 1673,
      "ister": 1674,
      "Ð·": 1675,
      "Ġname": 1676,
      "ternal": 1677,
      "urch": 1678,
      "Ġëĵ±": 1679,
      "Ġvan": 1680,
      "Ġmet": 1681,
      "ê°Ħ": 1682,
      "Ġart": 1683,
      "âĢľ": 1684,
      "ane": 1685,
      "Ġcre": 1686,
      "Ġused": 1687,
      "line": 1688,
      "Ġmen": 1689,
      "ider": 1690,
      "ê³Ħ": 1691,
      "Ġfollow": 1692,
      "Ġinv": 1693,
      "ams": 1694,
      "éĢ": 1695,
      "ruct": 1696,
      "ĠSp": 1697,
      "íģ": 1698,
      "ĠTe": 1699,
      "ÄŁ": 1700,
      "inc": 1701,
      "Ãº": 1702,
      "íķĺê³ł": 1703,
      "ëªħ": 1704,
      "ëĦ": 1705,
      "ĠìľĦ": 1706,
      "Ġê²½": 1707,
      "Ġà¤ľ": 1708,
      "Ġë²": 1709,
      "Ġresult": 1710,
      "',": 1711,
      "ober": 1712,
      "à¸¡": 1713,
      "urs": 1714,
      "Ġê³µ": 1715,
      "Ð¹": 1716,
      "Ġna": 1717,
      "Ø¹": 1718,
      "à¥¤": 1719,
      "Ġyears": 1720,
      "è¡": 1721,
      "ract": 1722,
      "Ġhim": 1723,
      "ĠGr": 1724,
      "191": 1725,
      "of": 1726,
      "ĠBl": 1727,
      "Ġson": 1728,
      "Ġthem": 1729,
      "atic": 1730,
      "ray": 1731,
      "æī": 1732,
      "Ġë¶Ģ": 1733,
      "ER": 1734,
      "Ġthrough": 1735,
      "ĠPar": 1736,
      "ĠIs": 1737,
      "ĠÐ¸": 1738,
      "26": 1739,
      "ique": 1740,
      "Ġstr": 1741,
      "Ġagain": 1742,
      "ka": 1743,
      ";čĊ": 1744,
      "Ġmus": 1745,
      "à¸µ": 1746,
      "ë¥´": 1747,
      "Ġpop": 1748,
      "Ġter": 1749,
      "ìĦ¸": 1750,
      "ìķ¼": 1751,
      "ages": 1752,
      "ows": 1753,
      "ible": 1754,
      "ķĮ": 1755,
      "ida": 1756,
      "Ġu": 1757,
      "Ġë¯": 1758,
      "Ġext": 1759,
      "Ġbetween": 1760,
      "vern": 1761,
      "Ġà¤¬": 1762,
      "ana": 1763,
      "ĠìĬ": 1764,
      "27": 1765,
      "ments": 1766,
      "ole": 1767,
      "28": 1768,
      "Ex": 1769,
      "}ĊĊ": 1770,
      "Ġprodu": 1771,
      "Pro": 1772,
      "ìĦł": 1773,
      "Ġgu": 1774,
      "ument": 1775,
      "inks": 1776,
      "kt": 1777,
      "emp": 1778,
      "fig": 1779,
      "Ġfound": 1780,
      "åĬ": 1781,
      "...": 1782,
      "rac": 1783,
      "à¤ª": 1784,
      "å·": 1785,
      "ices": 1786,
      "ior": 1787,
      "ley": 1788,
      "Ġpeople": 1789,
      "ê³µ": 1790,
      "Ġmon": 1791,
      "Ġgener": 1792,
      "íı": 1793,
      "velop": 1794,
      "ĠFor": 1795,
      "Con": 1796,
      "å¤§": 1797,
      "Ġsuch": 1798,
      "sch": 1799,
      "Ñħ": 1800,
      "rist": 1801,
      "å¸": 1802,
      "éĥ": 1803,
      "Ġê³ł": 1804,
      "Ġëį": 1805,
      "ĠWe": 1806,
      ".get": 1807,
      "la": 1808,
      "by": 1809,
      "Ġcall": 1810,
      "Ã©e": 1811,
      "ÃŃa": 1812,
      "Ġback": 1813,
      "éĩ": 1814,
      "ĠìĻ": 1815,
      "hr": 1816,
      "ious": 1817,
      "ograph": 1818,
      "Ġuna": 1819,
      "ird": 1820,
      "ë¬´": 1821,
      "{\\": 1822,
      "ript": 1823,
      "Ġhigh": 1824,
      "ĠAs": 1825,
      "ama": 1826,
      "Ġcap": 1827,
      "Ġsim": 1828,
      "íķł": 1829,
      "Ġíı": 1830,
      "ats": 1831,
      "ause": 1832,
      "40": 1833,
      "Ġmar": 1834,
      "Ø³": 1835,
      "ĠìĽ": 1836,
      "Ġsol": 1837,
      "Ġëħ": 1838,
      "ìľĦ": 1839,
      "ĠAmerican": 1840,
      "ë¯¸": 1841,
      "Ġdec": 1842,
      "ino": 1843,
      "Ġlist": 1844,
      "ha": 1845,
      "Ġsign": 1846,
      "ĠĊĊ": 1847,
      "led": 1848,
      "Ġnumber": 1849,
      "ined": 1850,
      "à¤Ĺ": 1851,
      "ury": 1852,
      "yle": 1853,
      "Ġíĸ": 1854,
      "{Ċ": 1855,
      "ever": 1856,
      "ê±°": 1857,
      "Ġlo": 1858,
      "Ġcor": 1859,
      "èĢ": 1860,
      "Ġve": 1861,
      "Ġcur": 1862,
      "unt": 1863,
      "æŃ": 1864,
      "Ġìĥģ": 1865,
      "ets": 1866,
      "Ġstart": 1867,
      "Ġsecond": 1868,
      "Ð¿": 1869,
      "ìĺ¤": 1870,
      "Ġdet": 1871,
      "ÄĻ": 1872,
      ".S": 1873,
      "ando": 1874,
      "view": 1875,
      "æľī": 1876,
      "ê¹Į": 1877,
      "Ġwell": 1878,
      "Ġfilm": 1879,
      "ui": 1880,
      "Ã±": 1881,
      "æĺ¯": 1882,
      "ĠEn": 1883,
      "32": 1884,
      "('": 1885,
      "êµĲ": 1886,
      "bum": 1887,
      "ì¡°": 1888,
      "Ġà¤¨": 1889,
      "ants": 1890,
      "Ġëª¨": 1891,
      "Ġvers": 1892,
      "Com": 1893,
      "Ġduring": 1894,
      "Ġ@": 1895,
      "'t": 1896,
      "ility": 1897,
      "ress": 1898,
      "ĠEl": 1899,
      "read": 1900,
      "ĠUnited": 1901,
      "ãģª": 1902,
      "ato": 1903,
      "ĠOn": 1904,
      "iter": 1905,
      "å¥": 1906,
      "very": 1907,
      "ëł¤": 1908,
      "other": 1909,
      "aut": 1910,
      "IN": 1911,
      "ä¸Ń": 1912,
      "ĠAnd": 1913,
      "æĹ¥": 1914,
      "Ġë§Ī": 1915,
      "her": 1916,
      "ĠíĶ": 1917,
      "Äħ": 1918,
      "Ġear": 1919,
      "Ġà¤ħ": 1920,
      "the": 1921,
      "ä¼": 1922,
      "Ġlike": 1923,
      "ĠEng": 1924,
      "imes": 1925,
      "Ġìĺ¤": 1926,
      "åº": 1927,
      "ired": 1928,
      "ivate": 1929,
      "âĢĶ": 1930,
      "ĠJohn": 1931,
      "eter": 1932,
      "press": 1933,
      "ĠìĦł": 1934,
      "Ġvari": 1935,
      "Ġdata": 1936,
      "ĠUniversity": 1937,
      "Ġrequ": 1938,
      "29": 1939,
      "Ġrele": 1940,
      "ott": 1941,
      ".com": 1942,
      "Ġjust": 1943,
      "Ġfinal": 1944,
      "ful": 1945,
      "ĠGe": 1946,
      "Ġfamil": 1947,
      "Ġimport": 1948,
      "til": 1949,
      "Ġà¤µ": 1950,
      "!Ċ": 1951,
      "Ġmade": 1952,
      "ki": 1953,
      "íĸī": 1954,
      "Ġhow": 1955,
      "ĠAm": 1956,
      "ä¿": 1957,
      "Ġthree": 1958,
      "Ġpub": 1959,
      "rag": 1960,
      "ital": 1961,
      "ê·": 1962,
      "af": 1963,
      "Ġà¤®à¥ĩà¤Ĥ": 1964,
      "ì¦": 1965,
      "Ð³": 1966,
      "Ġprogr": 1967,
      "ĶĶ": 1968,
      "Ġìľł": 1969,
      "ux": 1970,
      "Ġlong": 1971,
      "Ã´": 1972,
      "ium": 1973,
      "ather": 1974,
      "Ġpos": 1975,
      "ists": 1976,
      "name": 1977,
      "Ġoper": 1978,
      "æķ": 1979,
      "lish": 1980,
      "Ġsystem": 1981,
      ".\"": 1982,
      "Ã©r": 1983,
      "à¸§": 1984,
      "ë¯¼": 1985,
      "ido": 1986,
      "Ġcomo": 1987,
      "Ġhist": 1988,
      "()Ċ": 1989,
      "use": 1990,
      "ante": 1991,
      "ON": 1992,
      "ìĭĿ": 1993,
      "Ġwar": 1994,
      "col": 1995,
      "Ġì¢": 1996,
      "ìĹŃ": 1997,
      "íŀ": 1998,
      "Ġdirect": 1999,
      "ized": 2000,
      "ales": 2001,
      "åľ¨": 2002,
      "à¸¥": 2003,
      "ĠíĮ": 2004,
      "rop": 2005,
      "Ġbel": 2006,
      "Ġlinks": 2007,
      "åĩ": 2008,
      "ĠMay": 2009,
      "Ġmain": 2010,
      "ìĬµ": 2011,
      "anu": 2012,
      "Ġsm": 2013,
      "lich": 2014,
      "Ġchar": 2015,
      "Ã¶r": 2016,
      "ìĿĮ": 2017,
      "right": 2018,
      "vers": 2019,
      "190": 2020,
      "Ġíķ´": 2021,
      "Ġ$\\": 2022,
      "yp": 2023,
      ".m": 2024,
      "Ã¥": 2025,
      "oci": 2026,
      "Ġsing": 2027,
      "Ġlas": 2028,
      "ote": 2029,
      "ĠëĬ": 2030,
      "za": 2031,
      "Ġwhile": 2032,
      "Ġrun": 2033,
      "ait": 2034,
      "plic": 2035,
      "Ġpass": 2036,
      "è¦": 2037,
      "ìķĪ": 2038,
      "Ġà¤¦": 2039,
      "go": 2040,
      "ĠComm": 2041,
      "ì²´": 2042,
      "ĠÐ½": 2043,
      "ives": 2044,
      "ĠìĨĮ": 2045,
      "ĠGu": 2046,
      "ĠJul": 2047,
      "ëĭ¹": 2048,
      "Ġbeing": 2049,
      "ëĭ¨": 2050,
      "ĠTr": 2051,
      "Ġgroup": 2052,
      "Ġì¡°": 2053,
      "Ġmov": 2054,
      "ters": 2055,
      "à¸¢": 2056,
      "ê´Ģ": 2057,
      "ìĹĪëĭ¤": 2058,
      "à¸´": 2059,
      "ÐµÑĢ": 2060,
      "rict": 2061,
      "Ġcount": 2062,
      "ê²½": 2063,
      "ser": 2064,
      "ë¶Ħ": 2065,
      "Ġfin": 2066,
      "))": 2067,
      "ĠÐ¾": 2068,
      "ÑģÐº": 2069,
      "ery": 2070,
      "Ġ==": 2071,
      "Ġìĸ´": 2072,
      "mp": 2073,
      "Ġann": 2074,
      "Ġmany": 2075,
      "Ġthese": 2076,
      "Ġeff": 2077,
      "Ġneed": 2078,
      "amm": 2079,
      "à¥Ĥ": 2080,
      "->": 2081,
      "Ð°Ð½": 2082,
      "ê°ľ": 2083,
      "à¤¦": 2084,
      "ä¸į": 2085,
      "tr": 2086,
      "ĠìĹĲ": 2087,
      "reg": 2088,
      "chn": 2089,
      "Ġge": 2090,
      "),Ċ": 2091,
      "à¤µ": 2092,
      "ros": 2093,
      "Ġsi": 2094,
      "hi": 2095,
      "ĠdÃ©": 2096,
      "List": 2097,
      "ask": 2098,
      "ures": 2099,
      "hor": 2100,
      "Ġ=>": 2101,
      "Ġprof": 2102,
      "Ġbefore": 2103,
      "ett": 2104,
      "Ġwhat": 2105,
      "ĠSc": 2106,
      "ĠShe": 2107,
      "ived": 2108,
      "ëĲľ": 2109,
      "Ġdas": 2110,
      "nh": 2111,
      "ĠPol": 2112,
      "ÃŁ": 2113,
      "çĽ": 2114,
      "Ġdep": 2115,
      ").ĊĊ": 2116,
      "ìŀ¬": 2117,
      "å¼": 2118,
      "lar": 2119,
      "It": 2120,
      "Ġpoint": 2121,
      "_d": 2122,
      "?Ċ": 2123,
      "íģ¬": 2124,
      "aciÃ³n": 2125,
      "Ġorig": 2126,
      "çī": 2127,
      "ìļ´": 2128,
      "Ð±": 2129,
      "Ġpartic": 2130,
      "Ġmit": 2131,
      "íĥĢ": 2132,
      "br": 2133,
      "à¸Ķ": 2134,
      "ĠNov": 2135,
      "å±": 2136,
      "ader": 2137,
      "ĳĲ": 2138,
      "ĠìĹ¬": 2139,
      "ste": 2140,
      "Id": 2141,
      "Ġpo": 2142,
      "ille": 2143,
      "ense": 2144,
      "ource": 2145,
      "add": 2146,
      "Ġë¹Ħ": 2147,
      "Ar": 2148,
      ".p": 2149,
      "_s": 2150,
      "Ġrecord": 2151,
      "Ġfr": 2152,
      "ĠëĤ´": 2153,
      "Ġperson": 2154,
      "ìĥĿ": 2155,
      "Ġlater": 2156,
      "Name": 2157,
      "leg": 2158,
      "à¥įà¤¯": 2159,
      "Ġdan": 2160,
      "ĠEr": 2161,
      "-b": 2162,
      "Ġà¤²": 2163,
      "Ġsom": 2164,
      "åĴ": 2165,
      "abel": 2166,
      "Ġcare": 2167,
      "ĠìĹ°": 2168,
      "Ġour": 2169,
      "ĠRes": 2170,
      "ague": 2171,
      "Ġ///": 2172,
      "ãĤĮ": 2173,
      "Ġcr": 2174,
      "str": 2175,
      "ados": 2176,
      "ĠCan": 2177,
      "Ġë¯¸": 2178,
      "org": 2179,
      "erg": 2180,
      ".d": 2181,
      "ĠCent": 2182,
      "ĠìķĬ": 2183,
      "ëŀĺ": 2184,
      "Ġà¤°": 2185,
      "ãĤ¹": 2186,
      "present": 2187,
      "rol": 2188,
      "ĠìĤ": 2189,
      "ĠBar": 2190,
      "ule": 2191,
      "Ġseason": 2192,
      "Ġsame": 2193,
      "ĠAp": 2194,
      "íŀĪ": 2195,
      "ission": 2196,
      "ĠìŀĪëĬĶ": 2197,
      "Æ°á»": 2198,
      "ho": 2199,
      "ĠUS": 2200,
      "Ġteam": 2201,
      "ĠWorld": 2202,
      "å¯": 2203,
      "ĠëıĦ": 2204,
      "-s": 2205,
      "æĶ": 2206,
      "icht": 2207,
      "ĠAb": 2208,
      "ĠCount": 2209,
      "åĮ": 2210,
      "Ġpres": 2211,
      "oard": 2212,
      "Ġdesc": 2213,
      "AT": 2214,
      "tain": 2215,
      "Ġterm": 2216,
      "ĠYou": 2217,
      "ìľł": 2218,
      "Ġwrit": 2219,
      "Ġhel": 2220,
      "ĠII": 2221,
      "Ġêµ¬": 2222,
      "60": 2223,
      "µľ": 2224,
      "ìĹ°": 2225,
      "ugust": 2226,
      "ĠFl": 2227,
      "ĠMan": 2228,
      "Ġê´Ģ": 2229,
      "AR": 2230,
      "Ġvar": 2231,
      "Ð¾Ð´": 2232,
      "Ġ%": 2233,
      "Ð¾ÑĢ": 2234,
      "hes": 2235,
      "åĨ": 2236,
      "äºĨ": 2237,
      "à¤¾à¤¨": 2238,
      "omen": 2239,
      "Ġboth": 2240,
      "fo": 2241,
      "Ġdiffer": 2242,
      "ross": 2243,
      "Ġê°ľ": 2244,
      "ĠNational": 2245,
      "ella": 2246,
      "ìĺģ": 2247,
      "ê¸Ī": 2248,
      "ternational": 2249,
      "omb": 2250,
      "ores": 2251,
      "Ġyang": 2252,
      "ually": 2253,
      "On": 2254,
      ".l": 2255,
      "ë¬¼": 2256,
      "Ġíĥ": 2257,
      "ST": 2258,
      "era": 2259,
      "rem": 2260,
      "iment": 2261,
      "Ġcontin": 2262,
      "Type": 2263,
      "ĠâĢĺ": 2264,
      "ĉĉĉĉ": 2265,
      "à¸Ĺ": 2266,
      "ĠDec": 2267,
      "Ġsuc": 2268,
      "ĠEd": 2269,
      ");ĊĊ": 2270,
      "ëł¥": 2271,
      "ĳľ": 2272,
      "Ġschool": 2273,
      "Ġline": 2274,
      "Ġopen": 2275,
      "math": 2276,
      "Res": 2277,
      "Ġdevelop": 2278,
      "æľĪ": 2279,
      "Ġequ": 2280,
      "Ġpost": 2281,
      "ĠAll": 2282,
      "Ġapp": 2283,
      "ved": 2284,
      "----------------": 2285,
      "aking": 2286,
      "ĠQu": 2287,
      "à¥ĭà¤Ĥ": 2288,
      "Ġorgan": 2289,
      "ĠêµŃ": 2290,
      "Ð¾Ð»": 2291,
      "ĠÂ«": 2292,
      "}$": 2293,
      "ìĹĪ": 2294,
      "Ġdon": 2295,
      "ĠÐº": 2296,
      "ĠAt": 2297,
      "ĠAust": 2298,
      "ulation": 2299,
      "ãĥ¼ãĥ": 2300,
      "ĠEuro": 2301,
      "Ġmil": 2302,
      "ĠReg": 2303,
      "½Ķ": 2304,
      "fe": 2305,
      "ounc": 2306,
      "unic": 2307,
      "ĠWar": 2308,
      "èĩ": 2309,
      "è¯": 2310,
      "Ġeach": 2311,
      "æ°": 2312,
      "Ä±n": 2313,
      "Ġknown": 2314,
      "ì¡": 2315,
      "ĠáĦİ": 2316,
      "ìĭ¤": 2317,
      "ĠAss": 2318,
      "Ġtest": 2319,
      "Ġdid": 2320,
      "ĠëķĮ": 2321,
      "work": 2322,
      "ĠëĲĺ": 2323,
      "ĠëıĻ": 2324,
      "ca": 2325,
      "Ġfour": 2326,
      "ãĢĤĊĊ": 2327,
      "64": 2328,
      "lex": 2329,
      "lished": 2330,
      "ëłĪ": 2331,
      "Ġstate": 2332,
      "ody": 2333,
      "ati": 2334,
      "Ġbr": 2335,
      "Â·": 2336,
      "kan": 2337,
      "alt": 2338,
      "à¤¯": 2339,
      "String": 2340,
      "ault": 2341,
      "ĠìĬ¤": 2342,
      "alse": 2343,
      "Ġ_": 2344,
      "ology": 2345,
      "Å¼": 2346,
      "ãħĭ": 2347,
      "Ġë§Į": 2348,
      "Ġmake": 2349,
      "ano": 2350,
      "Ġìĭł": 2351,
      "Ġincluding": 2352,
      "à¤°à¥įà¤": 2353,
      "Ġappe": 2354,
      "Ġdans": 2355,
      "Ġbest": 2356,
      "á»Ļ": 2357,
      "ĠMin": 2358,
      "Ġnow": 2359,
      "ength": 2360,
      "ĠìĹĨ": 2361,
      "íİ": 2362,
      "-d": 2363,
      "ried": 2364,
      "ìŀħ": 2365,
      "Ġcould": 2366,
      "Ġdesign": 2367,
      "Ġìĺģ": 2368,
      "my": 2369,
      "ĠSte": 2370,
      "ì°¨": 2371,
      "ura": 2372,
      "31": 2373,
      "Ġrest": 2374,
      "urg": 2375,
      "ee": 2376,
      "éĸ": 2377,
      ":ĊĊ": 2378,
      "Ġë°ľ": 2379,
      "lin": 2380,
      "éĻ": 2381,
      "ero": 2382,
      "ione": 2383,
      "ethod": 2384,
      "ëĤ´": 2385,
      "ìĪ": 2386,
      "Ġshow": 2387,
      "Ġperform": 2388,
      "raw": 2389,
      "à¤¿à¤¯": 2390,
      "ample": 2391,
      "da": 2392,
      "yl": 2393,
      "ĠØ¨": 2394,
      "uck": 2395,
      "Ġmat": 2396,
      "ped": 2397,
      "\".": 2398,
      "arm": 2399,
      "ĠStates": 2400,
      "à¸°": 2401,
      "ios": 2402,
      "bs": 2403,
      "Ġreal": 2404,
      ".C": 2405,
      "Ġown": 2406,
      "Ġusing": 2407,
      "ptember": 2408,
      "ì§Ģë§Į": 2409,
      "ref": 2410,
      "à¸ķ": 2411,
      "</": 2412,
      "ĠHow": 2413,
      "ading": 2414,
      "Ġnon": 2415,
      "iving": 2416,
      "for": 2417,
      "itu": 2418,
      "ĠAugust": 2419,
      "ìĺĢ": 2420,
      "iam": 2421,
      "Ġâ": 2422,
      "lev": 2423,
      "Ġsl": 2424,
      "Ġê¸": 2425,
      "pril": 2426,
      "Ġprivate": 2427,
      "à¸ª": 2428,
      "Ġright": 2429,
      "ĠYork": 2430,
      "ender": 2431,
      "ĠNo": 2432,
      "Ġune": 2433,
      "Ġlocal": 2434,
      "icial": 2435,
      "ĠìĥĿ": 2436,
      "De": 2437,
      "ĠáĨ·": 2438,
      "aint": 2439,
      "ti": 2440,
      "zy": 2441,
      "Ġeen": 2442,
      "ĠãĢ": 2443,
      "å½": 2444,
      "ita": 2445,
      "Ġbuild": 2446,
      "ĠĠĠĠĠĠĠĠĠĠĠĠĠĠĠĠĠĠĠĠĠĠĠ": 2447,
      "80": 2448,
      "íĴ": 2449,
      "ĠÙģ": 2450,
      "ãĥ»": 2451,
      "ï¼ļ": 2452,
      "Ġë°Ķ": 2453,
      "ĠáĦĲ": 2454,
      "Ġins": 2455,
      "ãģĻ": 2456,
      "Ġalbum": 2457,
      "idad": 2458,
      "à¸ļ": 2459,
      "Ġrece": 2460,
      "æ³": 2461,
      "formation": 2462,
      "vo": 2463,
      "umb": 2464,
      "ster": 2465,
      "ootball": 2466,
      "Al": 2467,
      "ĠØ£": 2468,
      "://": 2469,
      "ÑĨ": 2470,
      "reen": 2471,
      "Ġdown": 2472,
      "ically": 2473,
      "Ġagainst": 2474,
      "189": 2475,
      "Ġvis": 2476,
      "ones": 2477,
      "ared": 2478,
      "Ġë°©": 2479,
      "por": 2480,
      "ĠëĦ": 2481,
      "itle": 2482,
      "Ġhet": 2483,
      "men": 2484,
      "ush": 2485,
      "oi": 2486,
      "iven": 2487,
      ".c": 2488,
      "ling": 2489,
      "ĠìĦ¸": 2490,
      "Ġfollowing": 2491,
      "è¨": 2492,
      "æĻ": 2493,
      "public": 2494,
      "Ġà¤ķà¥Ģ": 2495,
      "ĠìĦľ": 2496,
      "ervice": 2497,
      "Ġpolit": 2498,
      "Ġist": 2499,
      "ëįĺ": 2500,
      "íĺ¸": 2501,
      "ë°©": 2502,
      "Ĩł": 2503,
      "itions": 2504,
      "ains": 2505,
      "Val": 2506,
      "ĠOct": 2507,
      "Ġposs": 2508,
      "ä¸Ĭ": 2509,
      "ÑĢÐµ": 2510,
      "ĠGo": 2511,
      "Ġmemb": 2512,
      "ourn": 2513,
      "ĠMe": 2514,
      "ĠìķĪ": 2515,
      "Ġshould": 2516,
      "âĢ¦": 2517,
      "Ad": 2518,
      "Ġsupport": 2519,
      "gen": 2520,
      "ê°ģ": 2521,
      "Ġbir": 2522,
      "Ġë§Ĳ": 2523,
      "amed": 2524,
      "éĽ": 2525,
      "irc": 2526,
      "\":": 2527,
      "alk": 2528,
      "35": 2529,
      "iness": 2530,
      "å¿": 2531,
      "Ġhand": 2532,
      "ĠSchool": 2533,
      "Ġfind": 2534,
      "Ã©n": 2535,
      "Ġbecame": 2536,
      "ateg": 2537,
      "Ġprim": 2538,
      "ĠHist": 2539,
      "ald": 2540,
      "Ġvalue": 2541,
      "Ġzu": 2542,
      "ency": 2543,
      "\")": 2544,
      "ìĸĳ": 2545,
      "Ġsaid": 2546,
      "EN": 2547,
      "ĠPart": 2548,
      "à¥ĩà¤": 2549,
      "Ġsk": 2550,
      "ava": 2551,
      "Ġtem": 2552,
      ".,": 2553,
      "eder": 2554,
      "ued": 2555,
      "Ġauf": 2556,
      "========": 2557,
      "odel": 2558,
      "Ġtot": 2559,
      "Ġwon": 2560,
      "////": 2561,
      "Ġgovern": 2562,
      "åĳ": 2563,
      "ĠCo": 2564,
      "Ġals": 2565,
      "ĠBrit": 2566,
      "íĤ": 2567,
      "ä»¥": 2568,
      "ĠSeptember": 2569,
      "ĠVer": 2570,
      "ĠJanu": 2571,
      "Ġvol": 2572,
      "ĠĊĠĊ": 2573,
      "åĢ": 2574,
      "ebru": 2575,
      "Ġgame": 2576,
      "OR": 2577,
      "ini": 2578,
      "Ð½Ñĭ": 2579,
      "Ġbecause": 2580,
      "itor": 2581,
      "Ġuntil": 2582,
      "Ġelse": 2583,
      "_m": 2584,
      "bl": 2585,
      "ception": 2586,
      "Ð°Ð»": 2587,
      "Ð¾Ð¼": 2588,
      "ìŀĳ": 2589,
      "aul": 2590,
      "ief": 2591,
      "ito": 2592,
      "Ġbro": 2593,
      "Ġseries": 2594,
      "Ġlife": 2595,
      "ĠMarch": 2596,
      "atus": 2597,
      "Ġbus": 2598,
      "}\\": 2599,
      "set": 2600,
      "ajor": 2601,
      "å¹": 2602,
      "Ġevery": 2603,
      "ischen": 2604,
      "Ġsoc": 2605,
      "íĶĦ": 2606,
      "Ġexper": 2607,
      "íħ": 2608,
      "ìĿ´ëĿ¼": 2609,
      "ĠSouth": 2610,
      "_c": 2611,
      "back": 2612,
      "ena": 2613,
      "Ġtype": 2614,
      "ì¤ĳ": 2615,
      "ç»": 2616,
      "ìĬµëĭĪëĭ¤": 2617,
      "lected": 2618,
      "arch": 2619,
      "íĭ": 2620,
      "ØŃ": 2621,
      "ĠApril": 2622,
      "ĠExternal": 2623,
      "vol": 2624,
      "earch": 2625,
      "ID": 2626,
      "uf": 2627,
      "ival": 2628,
      "aster": 2629,
      "Ġê¹": 2630,
      "play": 2631,
      "He": 2632,
      "íĨµ": 2633,
      "Ġ!": 2634,
      "Ġì´": 2635,
      "Ġfamily": 2636,
      "ias": 2637,
      "_l": 2638,
      "ĠWill": 2639,
      "ager": 2640,
      "Ġlast": 2641,
      "Ġappro": 2642,
      "éĿ": 2643,
      "Ġìļ°": 2644,
      "med": 2645,
      "^{": 2646,
      "æĢ": 2647,
      "ampions": 2648,
      "ization": 2649,
      "Ġtop": 2650,
      "Data": 2651,
      "util": 2652,
      "ilt": 2653,
      "ĠCal": 2654,
      "essage": 2655,
      "ours": 2656,
      "Ġ>": 2657,
      "Ġvery": 2658,
      "Ġfunction": 2659,
      "ques": 2660,
      "Ġwin": 2661,
      "ides": 2662,
      "wards": 2663,
      "åĩº": 2664,
      "ches": 2665,
      "_p": 2666,
      "Ġdifferent": 2667,
      ".t": 2668,
      "Ġê°Ļ": 2669,
      "Ñİ": 2670,
      "ÙĬØ©": 2671,
      "-t": 2672,
      "æ²": 2673,
      "Ġchild": 2674,
      "Ġsever": 2675,
      "Ġarea": 2676,
      "åİ": 2677,
      "this": 2678,
      ".ĊĊĊ": 2679,
      "ele": 2680,
      "().": 2681,
      "ira": 2682,
      "Ġmuch": 2683,
      "new": 2684,
      "uy": 2685,
      "alth": 2686,
      "ĠJune": 2687,
      "ìħ": 2688,
      "day": 2689,
      "Ġë¬´": 2690,
      "En": 2691,
      "Ġê±°": 2692,
      "roll": 2693,
      ").Ċ": 2694,
      "ì¹´": 2695,
      "):Ċ": 2696,
      "ÅĽ": 2697,
      "ES": 2698,
      "Ġplace": 2699,
      "æł": 2700,
      "-f": 2701,
      "_f": 2702,
      "ëª¨": 2703,
      "elle": 2704,
      "Ġà¤ī": 2705,
      "ris": 2706,
      "ãģĭ": 2707,
      "ãĤ¤": 2708,
      "Ġpresent": 2709,
      "Ġprocess": 2710,
      "Ã¡s": 2711,
      "ĠChrist": 2712,
      "íķľëĭ¤": 2713,
      "ĠĠĠĠĠĠĠĠĠ": 2714,
      "erc": 2715,
      "|-": 2716,
      ".h": 2717,
      "à¸«": 2718,
      "¶Į": 2719,
      "ĠÐ´": 2720,
      "ken": 2721,
      "áº¿": 2722,
      "ãĢį": 2723,
      "ĉĉĉ": 2724,
      "ente": 2725,
      "ĠHar": 2726,
      "ĠMed": 2727,
      "Ġà¤Ĩ": 2728,
      "ream": 2729,
      "ural": 2730,
      "ĠNovember": 2731,
      "ĠGerm": 2732,
      "45": 2733,
      "Ġref": 2734,
      "yd": 2735,
      "Ġold": 2736,
      "ivid": 2737,
      "ified": 2738,
      "An": 2739,
      "Ġbook": 2740,
      "Ġeven": 2741,
      "ese": 2742,
      "33": 2743,
      "Ġgl": 2744,
      "Ġconf": 2745,
      "ua": 2746,
      "ĠØ¹": 2747,
      "ĠJuly": 2748,
      "¤Ģ": 2749,
      "Wh": 2750,
      "net": 2751,
      "à¹ģ": 2752,
      "ĠíĨµ": 2753,
      "ëŀĮ": 2754,
      "Ġleg": 2755,
      "AN": 2756,
      "To": 2757,
      "umm": 2758,
      "è®": 2759,
      "oman": 2760,
      "Ġcas": 2761,
      "Ġì¹": 2762,
      "):": 2763,
      "Ġopt": 2764,
      "Ġ->": 2765,
      "ĠJanuary": 2766,
      "Ġuma": 2767,
      "Ġ`": 2768,
      "Ġway": 2769,
      "ç§": 2770,
      "Ġìµľ": 2771,
      "ĠCounty": 2772,
      "Ã©t": 2773,
      "ĠOctober": 2774,
      "çľ": 2775,
      "Ġevent": 2776,
      "omin": 2777,
      "Ġsong": 2778,
      "188": 2779,
      "Ġsince": 2780,
      "ĠCity": 2781,
      "à¤¨à¥ĩ": 2782,
      "íķ©": 2783,
      "no": 2784,
      "Ġconsider": 2785,
      "ĠìĦ±": 2786,
      "åľ°": 2787,
      "ĠDes": 2788,
      "ë¡Ŀ": 2789,
      "uff": 2790,
      "à¸Ħ": 2791,
      "ÐµÐ»": 2792,
      "Ġbre": 2793,
      "def": 2794,
      "Ġos": 2795,
      "ëĤľ": 2796,
      "wh": 2797,
      "ponse": 2798,
      "Ð¾Ð³": 2799,
      "Ġport": 2800,
      "à¤¼": 2801,
      "Ġeng": 2802,
      "off": 2803,
      "iy": 2804,
      "ë°ĺ": 2805,
      "ĠNot": 2806,
      "åī": 2807,
      "ras": 2808,
      "Ġsee": 2809,
      ".f": 2810,
      "Ġsmall": 2811,
      "Ġhome": 2812,
      "ĠëĶ": 2813,
      "Ġcalled": 2814,
      "iá»": 2815,
      "ĠrÃ©": 2816,
      "ì¢": 2817,
      "Ġinc": 2818,
      "sk": 2819,
      "ĠSer": 2820,
      "Ġdoes": 2821,
      "Un": 2822,
      "åĵ": 2823,
      "ela": 2824,
      "Ġà¤ķà¥ĭ": 2825,
      "Ġlog": 2826,
      "ì´": 2827,
      "(Ċ": 2828,
      "ora": 2829,
      "ãĥ«": 2830,
      "Ġocc": 2831,
      "ĠEm": 2832,
      "Ġgen": 2833,
      "Ġë©": 2834,
      "ç«": 2835,
      "à¤¿à¤ķ": 2836,
      "Ġlook": 2837,
      "70": 2838,
      "Ġoriginal": 2839,
      "rain": 2840,
      "Ġpour": 2841,
      "çĶ¨": 2842,
      "Ġday": 2843,
      "AS": 2844,
      "Ġcase": 2845,
      "Ġcommun": 2846,
      "ula": 2847,
      "ãĤĬ": 2848,
      "Ġcurrent": 2849,
      "View": 2850,
      "Ġì§Ħ": 2851,
      "Ġë¶Ħ": 2852,
      "ĠMus": 2853,
      "Ġmark": 2854,
      "ìŀĦ": 2855,
      "Ġnull": 2856,
      "íĴĪ": 2857,
      "Ġà¤Ĺ": 2858,
      "ãģ£": 2859,
      "ãĢĭ": 2860,
      "åĺ": 2861,
      "left": 2862,
      "-m": 2863,
      "Ġdev": 2864,
      "Ġorder": 2865,
      "Ġknow": 2866,
      "acter": 2867,
      "ots": 2868,
      "à¤¡": 2869,
      "ÐµÑĤ": 2870,
      "akes": 2871,
      "mente": 2872,
      "Le": 2873,
      "Ġmusic": 2874,
      "ĠìĺĪ": 2875,
      "Ġproble": 2876,
      "Ġstring": 2877,
      "ĠfÃ¼r": 2878,
      "ape": 2879,
      "lege": 2880,
      "AL": 2881,
      "ify": 2882,
      "apt": 2883,
      "à¤¬": 2884,
      "Ġà¤¤": 2885,
      "áº£": 2886,
      "Ġfile": 2887,
      "ribut": 2888,
      "ĠÙĦ": 2889,
      "ìłĲ": 2890,
      "Ġband": 2891,
      "ĠíĬ": 2892,
      "gin": 2893,
      "class": 2894,
      "çĻ": 2895,
      "Ġcu": 2896,
      "Ġà¤¸à¥ĩ": 2897,
      "ĠIm": 2898,
      "}{": 2899,
      "pis": 2900,
      "ê¹Įì§Ģ": 2901,
      "íĹ": 2902,
      "ords": 2903,
      "íĽĦ": 2904,
      "Ġwant": 2905,
      "ìĨį": 2906,
      "ì²ľ": 2907,
      "90": 2908,
      "IT": 2909,
      "Ġproduc": 2910,
      "och": 2911,
      "ĠThey": 2912,
      "ĠìĹŃ": 2913,
      "ãĢĮ": 2914,
      "ope": 2915,
      "ĠPer": 2916,
      "ĠSystem": 2917,
      "íĸĪ": 2918,
      "rap": 2919,
      "aving": 2920,
      "Ī¬": 2921,
      "Ġíģ": 2922,
      "-l": 2923,
      "Ġwur": 2924,
      "æĽ": 2925,
      "ÑĢÐ¸": 2926,
      "ney": 2927,
      "çĤ": 2928,
      "arn": 2929,
      "istr": 2930,
      "ĠNorth": 2931,
      "ãĤī": 2932,
      "ista": 2933,
      "amente": 2934,
      "Ġworld": 2935,
      "ĠíĽĦ": 2936,
      "ipal": 2937,
      "æĪĳ": 2938,
      "ĠCor": 2939,
      "ĠRec": 2940,
      "ony": 2941,
      "Ġà¤Ķ": 2942,
      "íĳľ": 2943,
      "Ġáħ´": 2944,
      "ĠChar": 2945,
      "ves": 2946,
      "va": 2947,
      "Ġhead": 2948,
      "ëĵ¤ìĿ´": 2949,
      "load": 2950,
      "Ġáħª": 2951,
      "ĠDie": 2952,
      "ìķĺ": 2953,
      "ĠAustral": 2954,
      "ãħĭãħĭ": 2955,
      "stit": 2956,
      "Ġnear": 2957,
      "Ġë¬¸": 2958,
      "ĠAir": 2959,
      "36": 2960,
      "iro": 2961,
      "ãĢĤĊ": 2962,
      "áº¡": 2963,
      "ttp": 2964,
      "ĠMc": 2965,
      "ĺĲ": 2966,
      "********": 2967,
      "ĠDecember": 2968,
      "Ġdisc": 2969,
      "Ġê·": 2970,
      "æľ¬": 2971,
      "åĴĮ": 2972,
      "ended": 2973,
      "iod": 2974,
      "Ġà¤Ń": 2975,
      "ĠNe": 2976,
      "ised": 2977,
      "ØĮ": 2978,
      "vert": 2979,
      "Ġou": 2980,
      "ĠString": 2981,
      "ë¥¸": 2982,
      "ham": 2983,
      "ĠáĦĳ": 2984,
      "Ġà¤Ķà¤°": 2985,
      "angu": 2986,
      "Ġmodel": 2987,
      "ĠSup": 2988,
      "Ùī": 2989,
      "Ġaround": 2990,
      "ãĥĪ": 2991,
      "hel": 2992,
      "lection": 2993,
      "pen": 2994,
      "inn": 2995,
      "Ġtrue": 2996,
      "ëĦ¤": 2997,
      "ë³¸": 2998,
      "umn": 2999,
      "ĠState": 3000,
      "Ġëĵ¤": 3001,
      "Ġfield": 3002,
      "Ãµ": 3003,
      "ĠHer": 3004,
      "Ġestab": 3005,
      "ische": 3006,
      "è¡Į": 3007,
      "Ġìŀ¥": 3008,
      "Ġland": 3009,
      "itar": 3010,
      "-M": 3011,
      "čĊčĊ": 3012,
      "riend": 3013,
      "ĠSan": 3014,
      "apan": 3015,
      "string": 3016,
      "Ġseveral": 3017,
      "ë°ľ": 3018,
      "ĠMon": 3019,
      "34": 3020,
      "igen": 3021,
      "ĠArt": 3022,
      "arge": 3023,
      "Ġhelp": 3024,
      "Ġsec": 3025,
      "Ø¬": 3026,
      "ĠFebru": 3027,
      "ÑĪ": 3028,
      "ries": 3029,
      "Ð¶": 3030,
      "Ð¾Ð¹": 3031,
      "ĠWest": 3032,
      "ãģ¾": 3033,
      "Ã©m": 3034,
      "Ø§ÙĨ": 3035,
      "ĠØ§ÙĦÙħ": 3036,
      "ideo": 3037,
      "duct": 3038,
      "cont": 3039,
      "ìĭ¬": 3040,
      "ĠLeague": 3041,
      "uz": 3042,
      "ift": 3043,
      "ì¶ľ": 3044,
      "frac": 3045,
      "Ġstand": 3046,
      "Ġë§İ": 3047,
      "ports": 3048,
      "je": 3049,
      "raft": 3050,
      "Ġsuccess": 3051,
      "ilm": 3052,
      "Ġkey": 3053,
      "à¤ľ": 3054,
      "-S": 3055,
      "Ġplayed": 3056,
      "Ġformer": 3057,
      "ìĹĲëĬĶ": 3058,
      "çİ": 3059,
      "Ġarr": 3060,
      "ativ": 3061,
      "38": 3062,
      "gl": 3063,
      "Ġhab": 3064,
      "ĠVal": 3065,
      "ially": 3066,
      "åĽ½": 3067,
      "ference": 3068,
      "adi": 3069,
      "wer": 3070,
      "Ġvoid": 3071,
      "ãĤĤ": 3072,
      "Ġcamp": 3073,
      "ĠëįĶ": 3074,
      "Ġcour": 3075,
      "186": 3076,
      "ude": 3077,
      "187": 3078,
      "Â»": 3079,
      "Ġthose": 3080,
      "inter": 3081,
      "Ġà¤ĩ": 3082,
      "Ġqual": 3083,
      "Ġreleased": 3084,
      "ware": 3085,
      "æĪĲ": 3086,
      "ala": 3087,
      "ume": 3088,
      "ĠEurope": 3089,
      "Ġgood": 3090,
      "As": 3091,
      "rite": 3092,
      "Ġfact": 3093,
      "ë£¨": 3094,
      "ĠAf": 3095,
      "Ð¾Ð½": 3096,
      "ë²ķ": 3097,
      "/Ċ": 3098,
      "ãĥª": 3099,
      "Ġdos": 3100,
      "Ġà¤ķà¤°": 3101,
      "aces": 3102,
      "Ġwer": 3103,
      "ê±´": 3104,
      "Cl": 3105,
      "ë¸": 3106,
      "key": 3107,
      "êµ°": 3108,
      "ampionship": 3109,
      "ja": 3110,
      "íı¬": 3111,
      "Ġprom": 3112,
      "thern": 3113,
      "ëĶĶ": 3114,
      "37": 3115,
      "ĠAnt": 3116,
      "ih": 3117,
      "ison": 3118,
      "Ġprint": 3119,
      "ĠêµĲ": 3120,
      "Ġbas": 3121,
      "Äĩ": 3122,
      "Ġiss": 3123,
      "ness": 3124,
      "Ġdeb": 3125,
      "íķĺê²Į": 3126,
      "âĢĻt": 3127,
      "åĭ": 3128,
      "ĠEst": 3129,
      "Ġstill": 3130,
      "ĠëĮĢíķľ": 3131,
      "ĠÃ¼": 3132,
      "Ġcou": 3133,
      "iber": 3134,
      "Ġê°ķ": 3135,
      "Ġcity": 3136,
      "illion": 3137,
      "ians": 3138,
      "cul": 3139,
      "è§": 3140,
      "ĠëĨ": 3141,
      "Ġlim": 3142,
      "Ãµes": 3143,
      "born": 3144,
      "ched": 3145,
      "\",Ċ": 3146,
      "Ġhai": 3147,
      "Ġalong": 3148,
      "ĠRo": 3149,
      "Ġrepresent": 3150,
      "ä»ĸ": 3151,
      "ently": 3152,
      "ram": 3153,
      "åĪ°": 3154,
      "rid": 3155,
      "elt": 3156,
      "ĠGl": 3157,
      "Ġdat": 3158,
      "Ġleft": 3159,
      "ĠìĽĲ": 3160,
      "Ġqui": 3161,
      "Ġadv": 3162,
      "ided": 3163,
      "ges": 3164,
      "ii": 3165,
      "ä¾": 3166,
      "Ġread": 3167,
      "ĠAng": 3168,
      "Ġmem": 3169,
      "Er": 3170,
      "ately": 3171,
      "ria": 3172,
      "AC": 3173,
      "ë£Į": 3174,
      "quest": 3175,
      "ëĬĶëį°": 3176,
      "Ġma": 3177,
      "oph": 3178,
      "ãĤ¢": 3179,
      "cha": 3180,
      "Ãªn": 3181,
      "Ġdue": 3182,
      "iron": 3183,
      "Ġcal": 3184,
      "åĲĮ": 3185,
      "ĠSec": 3186,
      "Ġvill": 3187,
      "Ġmag": 3188,
      "ĠDav": 3189,
      "var": 3190,
      "cript": 3191,
      "ĠKing": 3192,
      "Ġearly": 3193,
      "Ġhum": 3194,
      "Ø§Øª": 3195,
      "nect": 3196,
      "æµ": 3197,
      "ç¬": 3198,
      "ë©´ìĦľ": 3199,
      "ĠØª": 3200,
      "Ġmult": 3201,
      "EC": 3202,
      "ĠSee": 3203,
      "ford": 3204,
      "Ġbased": 3205,
      "Ġexp": 3206,
      "Ġaus": 3207,
      "Ġsingle": 3208,
      "ĠSw": 3209,
      "ĠFebruary": 3210,
      "Ġenc": 3211,
      "ÈĻ": 3212,
      "Ġcompet": 3213,
      "date": 3214,
      "ocument": 3215,
      "ĠIf": 3216,
      "ych": 3217,
      "Cont": 3218,
      "Ġìĭ¤": 3219,
      "çĶŁ": 3220,
      "Ġì¶ľ": 3221,
      "ë²Ī": 3222,
      "Ã¤r": 3223,
      "Ġpat": 3224,
      "iones": 3225,
      "æİ": 3226,
      "ĠÐ½Ð°": 3227,
      "Ġclub": 3228,
      "ãģķ": 3229,
      "Ġquest": 3230,
      "Ġservice": 3231,
      "Ð¸Ñı": 3232,
      "Ġcond": 3233,
      "èĥ": 3234,
      "ĠëĬĶ": 3235,
      "Ġnov": 3236,
      "vious": 3237,
      "çµ": 3238,
      "ìļ¸": 3239,
      "egin": 3240,
      "Ã¨re": 3241,
      "eta": 3242,
      "gu": 3243,
      "Ġcompany": 3244,
      "ani": 3245,
      "åŃĲ": 3246,
      "åŁ": 3247,
      "ë°Ķ": 3248,
      "itch": 3249,
      "Ġki": 3250,
      "ë¶ĢíĦ°": 3251,
      "ìłĢ": 3252,
      "Ġentre": 3253,
      "ĠëĤ¨": 3254,
      "à¥įà¤¤": 3255,
      "etwork": 3256,
      "ĠDist": 3257,
      "Ġeine": 3258,
      "æŀ": 3259,
      "Ġkh": 3260,
      "Ġê²°": 3261,
      "ì²Ń": 3262,
      "Ġoch": 3263,
      "Ġë¨": 3264,
      "Ġdest": 3265,
      "ì¸": 3266,
      "lear": 3267,
      "ìĹĲê²Į": 3268,
      "Ġactiv": 3269,
      "ige": 3270,
      "Ð°ÑĤ": 3271,
      "ĠÙģÙĬ": 3272,
      "Col": 3273,
      "La": 3274,
      "íĨł": 3275,
      "Ġeffect": 3276,
      "arget": 3277,
      "ems": 3278,
      "lement": 3279,
      "Ġtake": 3280,
      "ãĥ©": 3281,
      "Ð¸ÑĤ": 3282,
      "zen": 3283,
      "ĠÐ¼": 3284,
      "ering": 3285,
      "ĠSo": 3286,
      "Ġlead": 3287,
      "39": 3288,
      "íĮĮ": 3289,
      "ç´": 3290,
      "æ¸": 3291,
      "endo": 3292,
      "ography": 3293,
      "ĠíĺĦ": 3294,
      "Ġant": 3295,
      "ession": 3296,
      "Ġsich": 3297,
      "Ġprote": 3298,
      "const": 3299,
      "Ġfootball": 3300,
      "stand": 3301,
      "Ġconc": 3302,
      "èµ": 3303,
      "ĠÑĤ": 3304,
      "Ġincre": 3305,
      "ê²©": 3306,
      "íĤ¤": 3307,
      "Ð¸Ð½": 3308,
      "æĬ": 3309,
      "ãģĤ": 3310,
      "à¤Ł": 3311,
      "çĲ": 3312,
      "ëĬ¥": 3313,
      "-p": 3314,
      "Ġthough": 3315,
      "Ġà¤ªà¥įà¤°": 3316,
      "Ġíİ": 3317,
      "conom": 3318,
      "Ġwithin": 3319,
      "ë¦Ħ": 3320,
      "Ġkar": 3321,
      "ĠDr": 3322,
      "ĠList": 3323,
      "Ġexpl": 3324,
      "AM": 3325,
      "Ġlaw": 3326,
      "Ġnational": 3327,
      "Ġstyle": 3328,
      "Ġmajor": 3329,
      "Ġinit": 3330,
      "(&": 3331,
      "ette": 3332,
      "ained": 3333,
      "Ġspe": 3334,
      "Ġber": 3335,
      "ĠThere": 3336,
      "over": 3337,
      "ĠSoc": 3338,
      "ades": 3339,
      "IC": 3340,
      "ador": 3341,
      "Ġproject": 3342,
      "adem": 3343,
      "Ġà¤ı": 3344,
      "ë¦°": 3345,
      "return": 3346,
      "aff": 3347,
      "ãģĵ": 3348,
      "ãĥĥ": 3349,
      "\\n": 3350,
      "ining": 3351,
      "rie": 3352,
      "á»ĳ": 3353,
      "Ġinstall": 3354,
      "Ġpower": 3355,
      "à¸Ī": 3356,
      "Ġì¢ĭ": 3357,
      "ë²Ħ": 3358,
      "´ĳ": 3359,
      "pa": 3360,
      "Ġtechn": 3361,
      "ĠáĦı": 3362,
      "ĠëĶ°": 3363,
      "pend": 3364,
      "ĠBritish": 3365,
      "ites": 3366,
      "Ġfac": 3367,
      "Ġtotal": 3368,
      "ê¶Į": 3369,
      "Ġfre": 3370,
      "ivision": 3371,
      "ards": 3372,
      "ily": 3373,
      "44": 3374,
      "lete": 3375,
      "ored": 3376,
      "uer": 3377,
      "Ġê³Ħ": 3378,
      "This": 3379,
      "Ġëħ¸": 3380,
      "ĠAfter": 3381,
      "åĺħ": 3382,
      "ì¢ħ": 3383,
      "Ġproduct": 3384,
      "Ġë°°": 3385,
      "ugg": 3386,
      "ww": 3387,
      "Ġprogram": 3388,
      "ĠJe": 3389,
      "Ã¢n": 3390,
      "ende": 3391,
      "Ġë¶Ī": 3392,
      "II": 3393,
      "Ġnext": 3394,
      "ëįĶ": 3395,
      "param": 3396,
      "ĠìķĮ": 3397,
      "(s": 3398,
      "Ġarg": 3399,
      ".b": 3400,
      "Ġmember": 3401,
      "ëĳĲ": 3402,
      "èª": 3403,
      "íĺĦ": 3404,
      "ĠíĶĦ": 3405,
      "aim": 3406,
      "-c": 3407,
      "odes": 3408,
      "Ġaff": 3409,
      "ë§¤": 3410,
      "idth": 3411,
      "idd": 3412,
      "ĠHigh": 3413,
      "à¤¾à¤²": 3414,
      "ĠBer": 3415,
      "face": 3416,
      "(t": 3417,
      "ances": 3418,
      "aya": 3419,
      "\");Ċ": 3420,
      "ĠComp": 3421,
      "Ã¼n": 3422,
      "ä¸ĭ": 3423,
      "Ġhouse": 3424,
      "Ġë¡": 3425,
      "ploy": 3426,
      "Ġtry": 3427,
      "ĠPort": 3428,
      "ä½ľ": 3429,
      "Ġcult": 3430,
      "Ġfn": 3431,
      "Ap": 3432,
      "-B": 3433,
      "ĠTo": 3434,
      "Ġìłģ": 3435,
      "Ġíı¬": 3436,
      "ml": 3437,
      "Ġlevel": 3438,
      "æĭ": 3439,
      "Ġbar": 3440,
      "Ġsus": 3441,
      "Ġbo": 3442,
      "ì§ģ": 3443,
      "perty": 3444,
      "íĺķ": 3445,
      "ona": 3446,
      "æĦ": 3447,
      "99": 3448,
      "ãĤ¯": 3449,
      "ways": 3450,
      "ĠPark": 3451,
      "è¦ģ": 3452,
      "orge": 3453,
      "itional": 3454,
      "ĠCont": 3455,
      "less": 3456,
      "ĠPhil": 3457,
      "ĠAct": 3458,
      "ĠAg": 3459,
      "à¹Ħ": 3460,
      "berg": 3461,
      "Ġìŀĳ": 3462,
      "Ġjo": 3463,
      "ungen": 3464,
      "RE": 3465,
      "ilar": 3466,
      "æĥ": 3467,
      "à¸Ľ": 3468,
      "Ġanother": 3469,
      "cal": 3470,
      "rew": 3471,
      "ima": 3472,
      "Im": 3473,
      "!!": 3474,
      "Se": 3475,
      "ici": 3476,
      "ĠvÃł": 3477,
      "Ġgreat": 3478,
      "55": 3479,
      "Ġfalse": 3480,
      "Ġtown": 3481,
      "bar": 3482,
      "Ġversion": 3483,
      "ĠÃ®": 3484,
      "ording": 3485,
      "roid": 3486,
      "Ġcareer": 3487,
      "Ġgiven": 3488,
      "ĠáĨ»": 3489,
      "ìłģìĿ¸": 3490,
      "We": 3491,
      "Ġlarge": 3492,
      "Ġinformation": 3493,
      "ÑĦ": 3494,
      "}}": 3495,
      "Value": 3496,
      "%Ċ": 3497,
      "ìĦ¤": 3498,
      "Ð¸Ðµ": 3499,
      "Ġplus": 3500,
      "á»§": 3501,
      "ponent": 3502,
      "not": 3503,
      "value": 3504,
      "Ġnh": 3505,
      "].": 3506,
      "umber": 3507,
      "Ġsite": 3508,
      "Ġmembers": 3509,
      "ĠLond": 3510,
      "wa": 3511,
      "48": 3512,
      "ls": 3513,
      "Ġbusiness": 3514,
      "ç¾": 3515,
      "raf": 3516,
      "(f": 3517,
      "Ġtri": 3518,
      "||": 3519,
      "Ġview": 3520,
      "Ġsem": 3521,
      "Ġstruct": 3522,
      "Ġtro": 3523,
      "ocal": 3524,
      "Ġìŀ¬": 3525,
      "éĥ½": 3526,
      "rab": 3527,
      "ories": 3528,
      "ĠPe": 3529,
      "500": 3530,
      "ification": 3531,
      "Ġlarg": 3532,
      "ìĺĢëĭ¤": 3533,
      "rown": 3534,
      "Ġgovernment": 3535,
      "ä¹ĭ": 3536,
      "Ġsett": 3537,
      "åı¯": 3538,
      "ÈĽ": 3539,
      "Ġcho": 3540,
      "Ġì°¨": 3541,
      "Ġtrad": 3542,
      "reet": 3543,
      "ĠPaul": 3544,
      "using": 3545,
      "ĠHis": 3546,
      "Ġshort": 3547,
      "à¥ģà¤": 3548,
      "Ġide": 3549,
      "æ´": 3550,
      "ced": 3551,
      "ĠĠĠĠĠĠĠĠĠĠĠĠĠĠĠĠĠĠĠĠĠĠĠĠĠĠĠĠĠĠĠĠ": 3552,
      "abor": 3553,
      "Ġê°Ĳ": 3554,
      "Ġhere": 3555,
      "Ä±r": 3556,
      "opy": 3557,
      "Ġà¤¯": 3558,
      "ĠlÃł": 3559,
      "Ġelect": 3560,
      "Ġmot": 3561,
      "Ġë°Ľ": 3562,
      "lt": 3563,
      "\")Ċ": 3564,
      "ëĤ¨": 3565,
      "ĠPres": 3566,
      "Ġdescrib": 3567,
      "Ġwater": 3568,
      "itÃ©": 3569,
      "adio": 3570,
      ".\\": 3571,
      "Ġà¤ķà¤¾": 3572,
      "Ġì¶Ķ": 3573,
      "Ġid": 3574,
      "ì½Ķ": 3575,
      "ola": 3576,
      "èĩª": 3577,
      "Ġmais": 3578,
      "ustom": 3579,
      "ĠChe": 3580,
      "ga": 3581,
      "iff": 3582,
      "ground": 3583,
      "Ġexist": 3584,
      "comm": 3585,
      "from": 3586,
      "],": 3587,
      "Ġchang": 3588,
      "Ġë°ĺ": 3589,
      "Ġair": 3590,
      "ĠHowever": 3591,
      "Ġstation": 3592,
      "ĠGener": 3593,
      "ìłģìľ¼ë¡ľ": 3594,
      "Ġreport": 3595,
      "à¹ĥ": 3596,
      "ittle": 3597,
      "å®¶": 3598,
      "Ġmethod": 3599,
      "ali": 3600,
      "Ã¡n": 3601,
      "Ġinclude": 3602,
      "IS": 3603,
      "alf": 3604,
      "``": 3605,
      "Ġsw": 3606,
      "Ġmonth": 3607,
      "ibr": 3608,
      "ĠNor": 3609,
      "Get": 3610,
      "Par": 3611,
      "icle": 3612,
      "íĭ°": 3613,
      "oria": 3614,
      "Ġwithout": 3615,
      "adas": 3616,
      "ê»": 3617,
      "Ġinf": 3618,
      "ãģĹãģ¦": 3619,
      "æ¯": 3620,
      "(self": 3621,
      "ailable": 3622,
      "Ð½Ð¾": 3623,
      "uel": 3624,
      "Ġgeneral": 3625,
      "ĠInternational": 3626,
      "Ob": 3627,
      "ĠBro": 3628,
      "åł": 3629,
      "Ġprinc": 3630,
      "rix": 3631,
      "éģĵ": 3632,
      "à¤¿à¤¤": 3633,
      "ĠJapan": 3634,
      "çĦ": 3635,
      "Ġ~": 3636,
      "ache": 3637,
      "Ġê³¼": 3638,
      "04": 3639,
      "Ġresp": 3640,
      "ëŀĳ": 3641,
      "Ġperiod": 3642,
      "ander": 3643,
      "ìĦĿ": 3644,
      "Ġcomplet": 3645,
      "75": 3646,
      ".set": 3647,
      "Ġìŀħ": 3648,
      "itz": 3649,
      "Ġpopulation": 3650,
      "è¿Ļ": 3651,
      "ä¿Ĥ": 3652,
      "Sh": 3653,
      "urther": 3654,
      "Ġmatch": 3655,
      "Ġbase": 3656,
      "Ġbegan": 3657,
      "eld": 3658,
      "aterial": 3659,
      "BC": 3660,
      "ande": 3661,
      "ĠÐ³": 3662,
      "urb": 3663,
      "ector": 3664,
      "atter": 3665,
      "ington": 3666,
      "ayer": 3667,
      "Ġë§¤": 3668,
      "Ġcost": 3669,
      "ĠMich": 3670,
      "185": 3671,
      "å°±": 3672,
      "ì¼": 3673,
      "ëŁ°": 3674,
      "Ġident": 3675,
      "ĠëĺĲ": 3676,
      "ÙĬÙĨ": 3677,
      "Ġcome": 3678,
      "_b": 3679,
      "Ġtook": 3680,
      "éļ": 3681,
      "è»": 3682,
      "By": 3683,
      "(\\": 3684,
      "ê¸ī": 3685,
      "ili": 3686,
      "¦¬": 3687,
      "Ġcomb": 3688,
      "åŃ¦": 3689,
      "æĮ": 3690,
      "irm": 3691,
      "ì¤Ģ": 3692,
      "Or": 3693,
      "Ġtyp": 3694,
      "ruction": 3695,
      "ĠItal": 3696,
      "ĠâĢŀ": 3697,
      "Ġwurde": 3698,
      "-A": 3699,
      "includ": 3700,
      "Ġsuper": 3701,
      "Ġsize": 3702,
      "é«": 3703,
      "Ġë¹": 3704,
      "aur": 3705,
      "éĥ¨": 3706,
      "Ġheld": 3707,
      "ET": 3708,
      "Ø·": 3709,
      "à¸²à¸£": 3710,
      "thers": 3711,
      "ahr": 3712,
      "ĠÐ±": 3713,
      "part": 3714,
      "bb": 3715,
      "yc": 3716,
      "Ġturn": 3717,
      "Ġcrit": 3718,
      "ĠìĤ¬ëŀĮ": 3719,
      "Ġdeath": 3720,
      "Ġëĭ¹": 3721,
      "±ħ": 3722,
      "))Ċ": 3723,
      "bol": 3724,
      "Ġprop": 3725,
      "Ġobject": 3726,
      "Ġëĭ¨": 3727,
      "ĠÙħÙĨ": 3728,
      "ĠEnglish": 3729,
      "Ġnamed": 3730,
      "åĪĨ": 3731,
      "ĠSm": 3732,
      "ĠìĦ¤": 3733,
      "ources": 3734,
      ".g": 3735,
      "aced": 3736,
      "ä¼ļ": 3737,
      "ouble": 3738,
      "ED": 3739,
      "ured": 3740,
      "ìĪł": 3741,
      "ĠBut": 3742,
      "Ġbeh": 3743,
      "ĠAc": 3744,
      "oe": 3745,
      "ĠRuss": 3746,
      "km": 3747,
      "Ġvi": 3748,
      "Ġtext": 3749,
      "æĸ¹": 3750,
      "65": 3751,
      "align": 3752,
      "ãģĨ": 3753,
      "uh": 3754,
      "opt": 3755,
      "à¸¸": 3756,
      "ë¨": 3757,
      "Ġê¹Ģ": 3758,
      "à¸·": 3759,
      "Ġë°ı": 3760,
      "Ġlocated": 3761,
      "anguage": 3762,
      "èĪ": 3763,
      "Ġfew": 3764,
      "_n": 3765,
      "uit": 3766,
      "Ġáħ¬": 3767,
      "do": 3768,
      "Ġà¤ªà¤°": 3769,
      "ì¦Ī": 3770,
      "01": 3771,
      "íĶ¼": 3772,
      "~~": 3773,
      "ination": 3774,
      "Ġprofess": 3775,
      "rench": 3776,
      "rick": 3777,
      "ump": 3778,
      ")$": 3779,
      "n't": 3780,
      "Pl": 3781,
      "à¸ŀ": 3782,
      "ĠOff": 3783,
      "Ġpot": 3784,
      ".j": 3785,
      "ĠCup": 3786,
      "begin": 3787,
      "ĠLondon": 3788,
      "Text": 3789,
      "Ġcert": 3790,
      "à¤ļ": 3791,
      "ì§Ī": 3792,
      "ëħ¸": 3793,
      "ania": 3794,
      "',Ċ": 3795,
      "ĠDis": 3796,
      "Ġáħ¯": 3797,
      "Ġfree": 3798,
      "For": 3799,
      "Ġfran": 3800,
      "à¸Ńà¸ĩ": 3801,
      "unction": 3802,
      "ĠDem": 3803,
      "ìķ½": 3804,
      "íķĺìĹ¬": 3805,
      "Ġha": 3806,
      "Ð¾ÑĤ": 3807,
      "Ġword": 3808,
      "print": 3809,
      "Ġeduc": 3810,
      "Øµ": 3811,
      "Ã¹": 3812,
      "éĹ": 3813,
      "ëĵł": 3814,
      "ĠMor": 3815,
      "atures": 3816,
      "Ð¸Ð¹": 3817,
      "ê°ķ": 3818,
      "Ġplayer": 3819,
      "ä¸ª": 3820,
      "ĠMal": 3821,
      "Ind": 3822,
      "ministr": 3823,
      "met": 3824,
      "ĠZe": 3825,
      "æĻĤ": 3826,
      "Ġì¦": 3827,
      "ops": 3828,
      "Ġstd": 3829,
      "ï¼īĊ": 3830,
      "ê°Ĳ": 3831,
      "Ø§Ø±": 3832,
      "æĸĩ": 3833,
      "ests": 3834,
      "à¹Į": 3835,
      "Ġstatic": 3836,
      "ago": 3837,
      "ĠìłĢ": 3838,
      "ota": 3839,
      "å¤ļ": 3840,
      "ìĶ": 3841,
      "çķ": 3842,
      "_id": 3843,
      "Ġtak": 3844,
      "Ġíķľëĭ¤": 3845,
      "78": 3846,
      "Ġimportant": 3847,
      "Ã©es": 3848,
      "ius": 3849,
      "uj": 3850,
      "References": 3851,
      "empt": 3852,
      "side": 3853,
      "Ġallow": 3854,
      "ipp": 3855,
      "ĠMy": 3856,
      "iles": 3857,
      "ario": 3858,
      "Ġeas": 3859,
      "nes": 3860,
      ");": 3861,
      "ĠíĻķ": 3862,
      "Ã¨s": 3863,
      "ĠChampionship": 3864,
      "Ġmer": 3865,
      "Ġbuilt": 3866,
      "ä¸º": 3867,
      "ì²ĺ": 3868,
      "Ġmust": 3869,
      "viron": 3870,
      "uis": 3871,
      "Ġstat": 3872,
      "ĠFrance": 3873,
      "ummary": 3874,
      "íĥľ": 3875,
      "action": 3876,
      "ael": 3877,
      "Ġsitu": 3878,
      "(d": 3879,
      "err": 3880,
      "ĠìĿĢ": 3881,
      "mi": 3882,
      "esch": 3883,
      "Ġà¤¶": 3884,
      "cis": 3885,
      "Ġinvest": 3886,
      "Ġanal": 3887,
      "Ã©d": 3888,
      "lÄ±": 3889,
      "ê²ł": 3890,
      "ĠPal": 3891,
      "ç·": 3892,
      "à¤¾à¤¤": 3893,
      "ights": 3894,
      "Ġchildren": 3895,
      "Ġìĺ¬": 3896,
      "ĠBel": 3897,
      "ĠDep": 3898,
      "oon": 3899,
      "ĠRed": 3900,
      "Ġage": 3901,
      "ability": 3902,
      "çŁ": 3903,
      "ails": 3904,
      "æ±": 3905,
      "ttps": 3906,
      "äºĭ": 3907,
      "though": 3908,
      "Ġtemp": 3909,
      "Ġreceived": 3910,
      "49": 3911,
      "íķĺê¸°": 3912,
      "Ġbis": 3913,
      "Error": 3914,
      "ĠIl": 3915,
      "Ġhistory": 3916,
      "å»": 3917,
      "Ġ()": 3918,
      "rack": 3919,
      "iga": 3920,
      "Ġsay": 3921,
      "ëŀĢ": 3922,
      "Ġsent": 3923,
      "ements": 3924,
      "Ġrefer": 3925,
      "|-Ċ": 3926,
      "idade": 3927,
      "Ġsocial": 3928,
      "Ġside": 3929,
      "Ġthink": 3930,
      ".D": 3931,
      "ĠTV": 3932,
      "equ": 3933,
      "ĠMart": 3934,
      "artment": 3935,
      "ì§ĳ": 3936,
      "itive": 3937,
      "Ġauch": 3938,
      "ĠCollege": 3939,
      "estern": 3940,
      "ĠRober": 3941,
      "ê·¼": 3942,
      "ips": 3943,
      "Ġol": 3944,
      "ëĭ¬": 3945,
      "å¦": 3946,
      "Ã³w": 3947,
      "Ġmas": 3948,
      "ered": 3949,
      "Ġsix": 3950,
      "Ġê±´": 3951,
      "omm": 3952,
      ".M": 3953,
      "Ġfull": 3954,
      "},": 3955,
      "ville": 3956,
      "'Ċ": 3957,
      "tes": 3958,
      "å£": 3959,
      "æ³ķ": 3960,
      "ë¦½": 3961,
      "Ġrepl": 3962,
      "Ġ</": 3963,
      "ĠHouse": 3964,
      "Ġput": 3965,
      "ĠâĢĶĊ": 3966,
      "rm": 3967,
      "Ġë¡ľ": 3968,
      "íĿ": 3969,
      "lam": 3970,
      "Ġexample": 3971,
      "ential": 3972,
      "ĠÃ¶": 3973,
      "çŃ": 3974,
      "Ġten": 3975,
      "ç¬¬": 3976,
      "Ġfive": 3977,
      "Ġesc": 3978,
      "à¤¿à¤²": 3979,
      "zo": 3980,
      "Ġtitle": 3981,
      "ĠOne": 3982,
      "éķ": 3983,
      "ply": 3984,
      "Ġfut": 3985,
      "ested": 3986,
      "Ġplan": 3987,
      "é¡": 3988,
      "ko": 3989,
      "ni": 3990,
      "ĠìļĶ": 3991,
      "ìĺĪ": 3992,
      "Ð¸Ð»": 3993,
      "47": 3994,
      "Ġplayers": 3995,
      "Ġba": 3996,
      "aps": 3997,
      "Ġspecial": 3998,
      "-se": 3999,
      "ĠBy": 4000,
      "184": 4001,
      "ending": 4002,
      "));Ċ": 4003,
      "Ġcontrol": 4004,
      "ĠíĮĮ": 4005,
      "ìĸ´ìļĶ": 4006,
      "Ġpas": 4007,
      "ĠIS": 4008,
      "serv": 4009,
      "ç¤": 4010,
      "oto": 4011,
      "aper": 4012,
      "Ġinte": 4013,
      "rel": 4014,
      "ĠSant": 4015,
      "ois": 4016,
      "ĠSal": 4017,
      "ĠëĳĲ": 4018,
      "ä¸»": 4019,
      ".w": 4020,
      "Ġ*/Ċ": 4021,
      "Ġhistor": 4022,
      "log": 4023,
      "ĠAut": 4024,
      "aÃ§Ã£o": 4025,
      "indows": 4026,
      "rat": 4027,
      "Ġcharacter": 4028,
      "ĠAfric": 4029,
      "ete": 4030,
      "å®ļ": 4031,
      "åķ": 4032,
      "Ã¶n": 4033,
      "Ã§Ãµes": 4034,
      "Ġposition": 4035,
      "ackage": 4036,
      "ĠKar": 4037,
      "46": 4038,
      "ç¨": 4039,
      "Ġpod": 4040,
      "Ã¡c": 4041,
      "Ġneg": 4042,
      "Ð¸Ðº": 4043,
      "Ġred": 4044,
      "Ġfoi": 4045,
      "ĠãĢĬ": 4046,
      "board": 4047,
      "Ġíķł": 4048,
      "unk": 4049,
      "['": 4050,
      ".A": 4051,
      "Ġavailable": 4052,
      "åĸ": 4053,
      "ĠStud": 4054,
      "ands": 4055,
      "ĠTrans": 4056,
      "ociation": 4057,
      "ĠBest": 4058,
      "Ġfund": 4059,
      "Ġserved": 4060,
      "åħ¬": 4061,
      "Ġseg": 4062,
      "ĠYear": 4063,
      "Ġoften": 4064,
      "osp": 4065,
      "æ¬": 4066,
      "ĠìľĦíķ´": 4067,
      "levision": 4068,
      "eh": 4069,
      "Ġcompos": 4070,
      "chen": 4071,
      "fic": 4072,
      "field": 4073,
      "Ġbuilding": 4074,
      "ables": 4075,
      "ĠHistory": 4076,
      "ĠíĬ¹": 4077,
      "cht": 4078,
      "ê»ĺ": 4079,
      "Ġprevious": 4080,
      "Ġexperi": 4081,
      "Ġess": 4082,
      "Ġclos": 4083,
      "Ġwomen": 4084,
      "ĠMag": 4085,
      "zi": 4086,
      "à¸µà¹Ī": 4087,
      "ĠMil": 4088,
      "æīĢ": 4089,
      "Ġpublished": 4090,
      "ention": 4091,
      "Ð¾Ñģ": 4092,
      "áºŃ": 4093,
      "à¤¿à¤¯à¤¾": 4094,
      "Ġce": 4095,
      "burg": 4096,
      "Ġuser": 4097,
      "Ġíķ¨": 4098,
      "Ġgames": 4099,
      "Ġauthor": 4100,
      "Ġà¤ļ": 4101,
      "Ġthird": 4102,
      "05": 4103,
      "ummer": 4104,
      "Ġinfl": 4105,
      "Ġcentury": 4106,
      "Ġincluded": 4107,
      "ĠìĤ¬ìļ©": 4108,
      "OS": 4109,
      "æĿ¥": 4110,
      "ĠÂ»": 4111,
      "eme": 4112,
      "Ġexpect": 4113,
      "-w": 4114,
      "geb": 4115,
      "ĠEar": 4116,
      "ĠPat": 4117,
      "vi": 4118,
      "è¾": 4119,
      "ĠìĪ": 4120,
      "Ġweek": 4121,
      "Ġindivid": 4122,
      "ìľ¼ë©°": 4123,
      "pub": 4124,
      "mas": 4125,
      "Ġtamb": 4126,
      "ungs": 4127,
      "iction": 4128,
      "Ġspecies": 4129,
      "itary": 4130,
      "verage": 4131,
      "urrent": 4132,
      "ĠDan": 4133,
      "Add": 4134,
      "ither": 4135,
      "mat": 4136,
      "Ġparticip": 4137,
      "State": 4138,
      "ìĻ¸": 4139,
      "uan": 4140,
      "ĠÙĬ": 4141,
      "ĠëħĦ": 4142,
      "omas": 4143,
      "ĠFrench": 4144,
      "now": 4145,
      "íķ¨": 4146,
      "Ġtimes": 4147,
      "Ġ!=": 4148,
      "Ġdella": 4149,
      "Ġvillage": 4150,
      "ĠíļĮ": 4151,
      "ills": 4152,
      "Ã§a": 4153,
      "iano": 4154,
      "å¥½": 4155,
      "åīį": 4156,
      "ĠmÃ¡s": 4157,
      "nie": 4158,
      "-P": 4159,
      "Ø´": 4160,
      "à¸¹": 4161,
      "ë¡ł": 4162,
      "attle": 4163,
      "Ġì°¸": 4164,
      "Ġappear": 4165,
      "lem": 4166,
      "à¤¤à¤¾": 4167,
      "à¹ĩ": 4168,
      "çĿ": 4169,
      "Ġcreate": 4170,
      "ëł¨": 4171,
      "åģ": 4172,
      "eq": 4173,
      "ÑģÑĤÐ²": 4174,
      "++": 4175,
      "ĠLou": 4176,
      "ouncil": 4177,
      "ijn": 4178,
      "iety": 4179,
      "Ġrange": 4180,
      "Ġofficial": 4181,
      "irt": 4182,
      "ì»": 4183,
      "ba": 4184,
      "ids": 4185,
      "Ġpa": 4186,
      "order": 4187,
      "plication": 4188,
      "è·": 4189,
      "å¾Ĺ": 4190,
      "Ġ--": 4191,
      "ĠDo": 4192,
      "æĸ°": 4193,
      "å§": 4194,
      "cient": 4195,
      "init": 4196,
      "iana": 4197,
      "US": 4198,
      "lands": 4199,
      "Ġdire": 4200,
      "ctor": 4201,
      "ëĵ¤ìĿĢ": 4202,
      "å°ı": 4203,
      "xim": 4204,
      "èĥ½": 4205,
      "Ġfriend": 4206,
      "mut": 4207,
      "icro": 4208,
      "ĠSim": 4209,
      "agement": 4210,
      "Ġborn": 4211,
      "Ġchange": 4212,
      "Ġepis": 4213,
      "ĠRich": 4214,
      "ournal": 4215,
      "Ð¾Ð³Ð¾": 4216,
      "éĺ": 4217,
      "æ¨": 4218,
      "åĲį": 4219,
      "Ġwebs": 4220,
      "atal": 4221,
      "Ñī": 4222,
      "ĠìĿĦ": 4223,
      "ye": 4224,
      "bert": 4225,
      "ìŀĪ": 4226,
      "Ġindust": 4227,
      "ĠÃ¨": 4228,
      "Ġcá»§": 4229,
      "ormal": 4230,
      "user": 4231,
      ",\"": 4232,
      "position": 4233,
      "acy": 4234,
      "Ø§Ùħ": 4235,
      "Ġren": 4236,
      "èĢħ": 4237,
      "ĠVol": 4238,
      "áº¥": 4239,
      "ëĵ±": 4240,
      "AP": 4241,
      "aux": 4242,
      "ĠDistrict": 4243,
      "Ġcá»§a": 4244,
      "éĤ": 4245,
      "ecut": 4246,
      "Ġcountry": 4247,
      "ĠáħŃ": 4248,
      "oper": 4249,
      "180": 4250,
      "untu": 4251,
      "ê²°": 4252,
      "-h": 4253,
      "LE": 4254,
      "ĠRiver": 4255,
      "è©": 4256,
      "ĠáĨ¸": 4257,
      "test": 4258,
      "ny": 4259,
      "El": 4260,
      "rio": 4261,
      "Ġsimilar": 4262,
      "Ġavec": 4263,
      "á»ĭ": 4264,
      "ĠìĻ¸": 4265,
      "Ġarch": 4266,
      "à¥įà¤Ł": 4267,
      "(),": 4268,
      "Ð°ÑĢ": 4269,
      "Ġvideo": 4270,
      "ëł¹": 4271,
      "æ¥": 4272,
      "abil": 4273,
      "obal": 4274,
      "ride": 4275,
      "Ã©c": 4276,
      "oney": 4277,
      "ends": 4278,
      "Tr": 4279,
      "Ġflo": 4280,
      "Ġcaus": 4281,
      "cer": 4282,
      "ĠDavid": 4283,
      "Ġdur": 4284,
      "Ġnach": 4285,
      "cience": 4286,
      "ivil": 4287,
      "Key": 4288,
      "ension": 4289,
      "Ġhaving": 4290,
      "posed": 4291,
      "ìĬ¹": 4292,
      "Ġje": 4293,
      "bor": 4294,
      "ĠInter": 4295,
      "ĠFre": 4296,
      "Ġà¤¹à¥ĭ": 4297,
      "Ġaccess": 4298,
      "empl": 4299,
      "Ġless": 4300,
      "Ġom": 4301,
      "Ġdies": 4302,
      "Ġng": 4303,
      "Ġdays": 4304,
      "RO": 4305,
      "ĠLand": 4306,
      "å¸Ĥ": 4307,
      "Ġcommon": 4308,
      "ailed": 4309,
      "å¾Į": 4310,
      "ÙĦÙī": 4311,
      "Ġ<<": 4312,
      "_C": 4313,
      "ĠHol": 4314,
      "-F": 4315,
      "ãĤ·": 4316,
      "Ġmut": 4317,
      "Service": 4318,
      "ync": 4319,
      "Ð¸Ð¸": 4320,
      "Ġpoints": 4321,
      "ators": 4322,
      "ĠWilliam": 4323,
      "Ġround": 4324,
      "à¸Ĥ": 4325,
      "bf": 4326,
      "Ġka": 4327,
      "Ġassert": 4328,
      "ĠÃ©t": 4329,
      "utes": 4330,
      "asi": 4331,
      "ĠJames": 4332,
      "ãģĹãģŁ": 4333,
      "ãģĻãĤĭ": 4334,
      "UT": 4335,
      "ãĤ¿": 4336,
      "ìľ¡": 4337,
      "po": 4338,
      "ĠRoy": 4339,
      "éł": 4340,
      "ĠíĶ¼": 4341,
      "ĠíķĻ": 4342,
      "åľĭ": 4343,
      "rav": 4344,
      "ika": 4345,
      "Ġinvol": 4346,
      "è³": 4347,
      "uild": 4348,
      "Ġà¤¹à¥Īà¤Ĥ": 4349,
      "center": 4350,
      "Ġnorth": 4351,
      "à¤§": 4352,
      "Ġled": 4353,
      "èģ": 4354,
      "ĠDon": 4355,
      "çĤº": 4356,
      "ãģı": 4357,
      "Ġintro": 4358,
      "Ġrole": 4359,
      "ĠI'": 4360,
      "08": 4361,
      "Ķëĭ¤": 4362,
      "Ġresearch": 4363,
      "ìĽĮ": 4364,
      "Ġpri": 4365,
      "ç¥": 4366,
      "42": 4367,
      "Ġë¬¼": 4368,
      "ĠGerman": 4369,
      "Ġëªħ": 4370,
      "Ġris": 4371,
      "ĠWhen": 4372,
      "ogn": 4373,
      "ãĥ³ãĥ": 4374,
      "Ġhost": 4375,
      "ĠAcc": 4376,
      "ĠMac": 4377,
      "Æ°á»£": 4378,
      ".F": 4379,
      "[i": 4380,
      "Em": 4381,
      "Ġsignific": 4382,
      "à¤¾à¤®": 4383,
      "eck": 4384,
      "alam": 4385,
      "183": 4386,
      "ĠÐ°": 4387,
      "pert": 4388,
      "ĠëĲľ": 4389,
      "ably": 4390,
      "Ä±nd": 4391,
      "pression": 4392,
      "eters": 4393,
      "Ġmax": 4394,
      "íĹĺ": 4395,
      "ãĤĪ": 4396,
      "Ġfeature": 4397,
      "Ġbreak": 4398,
      "Ġworks": 4399,
      "AD": 4400,
      "èĢĮ": 4401,
      "06": 4402,
      "Ġpath": 4403,
      "Ð°Ðº": 4404,
      "ĠëķĮë¬¸": 4405,
      "ëŁī": 4406,
      "Qu": 4407,
      "ĠInt": 4408,
      "ĉif": 4409,
      "Ġcreated": 4410,
      "Ġtoo": 4411,
      "åĲĪ": 4412,
      "len": 4413,
      "ĠÃ®n": 4414,
      "ëĥ": 4415,
      "ilder": 4416,
      "url": 4417,
      "encia": 4418,
      "oken": 4419,
      "Ġgi": 4420,
      "ë¸Į": 4421,
      "ftware": 4422,
      "à¸Ĭ": 4423,
      ".st": 4424,
      "Ġoffer": 4425,
      "Ġera": 4426,
      "Ġê²Į": 4427,
      "_S": 4428,
      "ë³µ": 4429,
      "lease": 4430,
      "urt": 4431,
      "Ġresults": 4432,
      "Ġparticular": 4433,
      "íĮĲ": 4434,
      "300": 4435,
      "engan": 4436,
      "Ġdied": 4437,
      "ively": 4438,
      "ĠAward": 4439,
      "ë¹": 4440,
      "ĠSk": 4441,
      "Ġutil": 4442,
      "Ġsob": 4443,
      "é«ĺ": 4444,
      "Ġlate": 4445,
      "Time": 4446,
      "ĠMont": 4447,
      "ëĭ¤ëĬĶ": 4448,
      "ĠEast": 4449,
      "Ġmunic": 4450,
      "Ġdocument": 4451,
      "Ġperm": 4452,
      "Ġfem": 4453,
      "Ġë¦¬": 4454,
      "Ã¬": 4455,
      "ĠíĿ": 4456,
      "iforn": 4457,
      "ç¶": 4458,
      "ĠSen": 4459,
      "....": 4460,
      "ĠSing": 4461,
      "ĠGeneral": 4462,
      "ì¡±": 4463,
      "Ġcoll": 4464,
      "ples": 4465,
      "Ġbi": 4466,
      "nen": 4467,
      "Ġpel": 4468,
      "Ġtw": 4469,
      "ĠClub": 4470,
      "ĠSome": 4471,
      "ë¦¬ê³ł": 4472,
      "adu": 4473,
      "ãģķãĤĮ": 4474,
      "ë¦¼": 4475,
      "09": 4476,
      "Ġëĭ¬": 4477,
      "Ġsat": 4478,
      ");čĊ": 4479,
      "FA": 4480,
      "âĢ¢": 4481,
      "Ġsold": 4482,
      "åĢĭ": 4483,
      "(m": 4484,
      "Ġà¤¥": 4485,
      "ë³Ħ": 4486,
      "-y": 4487,
      "Object": 4488,
      "æľĢ": 4489,
      "ules": 4490,
      "éĿ¢": 4491,
      "Ġvia": 4492,
      "annel": 4493,
      "cast": 4494,
      "à¥įà¤µ": 4495,
      "Ġorg": 4496,
      "oun": 4497,
      "ases": 4498,
      "_st": 4499,
      "atural": 4500,
      "Ġaf": 4501,
      "All": 4502,
      "pha": 4503,
      "ĠMa": 4504,
      "Exception": 4505,
      "ĠHen": 4506,
      "clus": 4507,
      "Ġamong": 4508,
      "imal": 4509,
      "Man": 4510,
      "Ġpract": 4511,
      "Ġhard": 4512,
      "Ġpopular": 4513,
      "ç©": 4514,
      "Ġmillion": 4515,
      "ĠWith": 4516,
      "ĠíĸĪ": 4517,
      "ĠÐ·": 4518,
      "yr": 4519,
      "BS": 4520,
      "Ġannounc": 4521,
      "Ġwerden": 4522,
      "(x": 4523,
      "Ġpay": 4524,
      "Ġho": 4525,
      "Ġstarted": 4526,
      "58": 4527,
      "é»": 4528,
      "Ġworking": 4529,
      "Ø®": 4530,
      "|Ċ": 4531,
      "Item": 4532,
      "Ġespec": 4533,
      "Ġimp": 4534,
      "ä»£": 4535,
      "-C": 4536,
      "ĠëĪ": 4537,
      "Ġë¨¹": 4538,
      "avy": 4539,
      "à¤¿à¤¸": 4540,
      "Ġsal": 4541,
      "akan": 4542,
      "ãĢĬ": 4543,
      "07": 4544,
      "']": 4545,
      "Is": 4546,
      "ĠíĹ": 4547,
      "Test": 4548,
      "Ġnever": 4549,
      "Ġà¤ĩà¤¸": 4550,
      "\">": 4551,
      "ÃŃt": 4552,
      "åħ¥": 4553,
      "\\end": 4554,
      "Ġdevelopment": 4555,
      "ycl": 4556,
      "ìĨ¡": 4557,
      "upt": 4558,
      "illa": 4559,
      "ĠMark": 4560,
      "Ã²": 4561,
      "ĠMad": 4562,
      "jo": 4563,
      "oma": 4564,
      "Ã¤nd": 4565,
      "Ñį": 4566,
      "color": 4567,
      "idge": 4568,
      "='": 4569,
      "Ġproblem": 4570,
      "ĠGeorge": 4571,
      "Ġcode": 4572,
      "ĠLes": 4573,
      "cel": 4574,
      "ÑģÑı": 4575,
      "ĠÃ¤": 4576,
      "56": 4577,
      "Ġìļ´": 4578,
      "Ġì½Ķ": 4579,
      "Ġsouth": 4580,
      "ached": 4581,
      "////////": 4582,
      "íħĮ": 4583,
      "Ġbecome": 4584,
      "uter": 4585,
      "Ġko": 4586,
      "Ġdin": 4587,
      "Ġcame": 4588,
      "Ġpers": 4589,
      "ĠFilm": 4590,
      "á»į": 4591,
      "aged": 4592,
      "Ġà¤ıà¤ķ": 4593,
      "_{\\": 4594,
      "ĠìĹ´": 4595,
      "antes": 4596,
      "rote": 4597,
      "vis": 4598,
      "ĠForm": 4599,
      "íķĻêµĲ": 4600,
      "Ġmean": 4601,
      "ì´Ī": 4602,
      "tre": 4603,
      "Ġ?": 4604,
      "ë°°": 4605,
      "Ġans": 4606,
      "Ġcommunity": 4607,
      "lag": 4608,
      "-D": 4609,
      "itte": 4610,
      "ivity": 4611,
      "dom": 4612,
      "iers": 4613,
      "59": 4614,
      "raz": 4615,
      "Ġinternational": 4616,
      "êµŃìĿĺ": 4617,
      "ĠBlack": 4618,
      "ãģį": 4619,
      ".L": 4620,
      "rd": 4621,
      "pres": 4622,
      "Ġì»": 4623,
      "ĢìĿ´": 4624,
      "Ġsym": 4625,
      "':": 4626,
      "Ġdeg": 4627,
      "Ġwebsite": 4628,
      "^^": 4629,
      "());Ċ": 4630,
      "Ġ{čĊ": 4631,
      "Ġca": 4632,
      "ION": 4633,
      "Ġgoing": 4634,
      "Ġalg": 4635,
      "Ġbody": 4636,
      "oud": 4637,
      "ĠÐ¡": 4638,
      "amento": 4639,
      "ĠÃ§": 4640,
      "ë¥ĺ": 4641,
      "idos": 4642,
      "Ġengine": 4643,
      "ĠØ¥": 4644,
      "Ġspace": 4645,
      "vironment": 4646,
      "Ġpresident": 4647,
      "ÐµÐ¼": 4648,
      "Ġcell": 4649,
      "Ġtre": 4650,
      "Ġservices": 4651,
      ".âĢĿ": 4652,
      "Ġvarious": 4653,
      "Ġnetwork": 4654,
      "plement": 4655,
      "ĠBen": 4656,
      "ĠDer": 4657,
      "Des": 4658,
      "span": 4659,
      "-G": 4660,
      "ĠĠĠĠĠĠĠĠĠĠĠĠĠĠĠĠĠĠĠĠĠĠĠĠĠĠĠ": 4661,
      "ĠëĿ¼": 4662,
      "Ġcommand": 4663,
      "41": 4664,
      "ãĥ¬": 4665,
      "oo": 4666,
      "aron": 4667,
      "ĠCap": 4668,
      "Ġcheck": 4669,
      "Ø²": 4670,
      "æı": 4671,
      "Ġíĸī": 4672,
      "Ġwent": 4673,
      "ĠMet": 4674,
      "é£": 4675,
      "Ġ&&": 4676,
      "ĠParty": 4677,
      "Ð»Ð°": 4678,
      "\\begin": 4679,
      "...Ċ": 4680,
      "Ã¤t": 4681,
      "head": 4682,
      "illed": 4683,
      "lie": 4684,
      "Ġindividual": 4685,
      "avor": 4686,
      "çĲĨ": 4687,
      "Ġvoor": 4688,
      "igned": 4689,
      "Ñĳ": 4690,
      "á»Ļt": 4691,
      "ĠStad": 4692,
      "ëĤł": 4693,
      "ĠíĻĶ": 4694,
      "ifornia": 4695,
      "Ġyoung": 4696,
      "aine": 4697,
      "icense": 4698,
      "indow": 4699,
      "Ġable": 4700,
      "pre": 4701,
      ".B": 4702,
      "ë§Ĳ": 4703,
      "íİ¸": 4704,
      "Ġlow": 4705,
      "Ġstudents": 4706,
      "px": 4707,
      "ĠParis": 4708,
      "Ġeconom": 4709,
      "Ġfig": 4710,
      "Ġinde": 4711,
      "ĠSaint": 4712,
      "Ġfar": 4713,
      "iá»ĩ": 4714,
      ")čĊ": 4715,
      "Ġlight": 4716,
      "lim": 4717,
      "istic": 4718,
      "ĠFirst": 4719,
      "ĠCour": 4720,
      "ires": 4721,
      "alls": 4722,
      "Ġmarket": 4723,
      "ĠTer": 4724,
      "include": 4725,
      "66": 4726,
      "íĸ¥": 4727,
      "rim": 4728,
      "ĠEngland": 4729,
      "Æ¡": 4730,
      "Ġmass": 4731,
      "with": 4732,
      "Ġenerg": 4733,
      "ĠGroup": 4734,
      "zer": 4735,
      "ĠÃ¼ber": 4736,
      "(c": 4737,
      "57": 4738,
      "lymp": 4739,
      "gar": 4740,
      "ĠThese": 4741,
      "ben": 4742,
      "Ġaur": 4743,
      "Ġpen": 4744,
      "Ġgrow": 4745,
      "aining": 4746,
      "inde": 4747,
      "utsch": 4748,
      "Ġreview": 4749,
      "Ġmeng": 4750,
      "iques": 4751,
      "Ġmaterial": 4752,
      "duction": 4753,
      "Ġprob": 4754,
      "sequ": 4755,
      "Ġì¹´": 4756,
      "Ġstory": 4757,
      "ĠStreet": 4758,
      "Ġattack": 4759,
      "Not": 4760,
      "uth": 4761,
      "udo": 4762,
      "Ġíıī": 4763,
      "íļ": 4764,
      "Ġcirc": 4765,
      "itect": 4766,
      "Ġsont": 4767,
      "Ġsam": 4768,
      "Ġabove": 4769,
      "ĠLos": 4770,
      "Ġdiv": 4771,
      "olic": 4772,
      "íĻĺ": 4773,
      "02": 4774,
      "Ġëį°": 4775,
      "ema": 4776,
      "ĠAustralia": 4777,
      "Ġeste": 4778,
      "Ġë¸": 4779,
      "gy": 4780,
      "Ġobserv": 4781,
      "à¤¿à¤ı": 4782,
      "iner": 4783,
      "Ġrespect": 4784,
      "td": 4785,
      "ayout": 4786,
      "ç½": 4787,
      "ĠQue": 4788,
      "pan": 4789,
      "ji": 4790,
      "ting": 4791,
      "Ġhom": 4792,
      "ĠRepublic": 4793,
      "à¤£": 4794,
      "Ø£": 4795,
      "ety": 4796,
      "Ġproduction": 4797,
      "ship": 4798,
      "ĠÑĥ": 4799,
      "88": 4800,
      "Ġestablished": 4801,
      "word": 4802,
      "ev": 4803,
      "EL": 4804,
      "Ø¶": 4805,
      "index": 4806,
      "è²": 4807,
      "Ġhon": 4808,
      "bre": 4809,
      "Ġì§ĳ": 4810,
      "Sc": 4811,
      "summary": 4812,
      "Ġerror": 4813,
      "cite": 4814,
      "ìĸµ": 4815,
      "ĠInstit": 4816,
      "Ġdengan": 4817,
      "ĠÅ": 4818,
      "ëĵ¤ìĿĺ": 4819,
      "Ġpress": 4820,
      "Ġpossible": 4821,
      "[]": 4822,
      "anto": 4823,
      "à¤¾à¤Ĥ": 4824,
      ".P": 4825,
      "à¸³": 4826,
      "à¹Ĥ": 4827,
      "ĠOk": 4828,
      "IM": 4829,
      "iger": 4830,
      "Ð¸Ð¼": 4831,
      "Result": 4832,
      "pi": 4833,
      "file": 4834,
      "Ġhapp": 4835,
      "una": 4836,
      "Ġëª»": 4837,
      "Ġcover": 4838,
      "idence": 4839,
      "sec": 4840,
      "Ġunivers": 4841,
      "43": 4842,
      "ëłĩ": 4843,
      "thing": 4844,
      "Ġëĵľ": 4845,
      "ë©Ķ": 4846,
      "íİĺ": 4847,
      "kn": 4848,
      "Ġsou": 4849,
      "ĠSam": 4850,
      "ĠAlex": 4851,
      "ëĿ¼ê³ł": 4852,
      "**Ċ": 4853,
      "Ġì´Ī": 4854,
      "used": 4855,
      "Ġmoved": 4856,
      "-L": 4857,
      "quad": 4858,
      "Ġdurch": 4859,
      "ì¦Ŀ": 4860,
      "\";Ċ": 4861,
      "±Ħ": 4862,
      "File": 4863,
      "urity": 4864,
      "ì£": 4865,
      "Ġmom": 4866,
      "ribution": 4867,
      "ĠMusic": 4868,
      "olf": 4869,
      "Ġdig": 4870,
      "uns": 4871,
      "hib": 4872,
      "ismo": 4873,
      "ĠCast": 4874,
      "ĠChurch": 4875,
      "¤Ħ": 4876,
      "Ð¸Ñĩ": 4877,
      "ischer": 4878,
      "Äĥm": 4879,
      "Ġìŀĺ": 4880,
      "ĠRet": 4881,
      "Ġbei": 4882,
      "ä¹Ł": 4883,
      "pace": 4884,
      "Ġphys": 4885,
      "çº": 4886,
      "Ġaccount": 4887,
      "Ġmaking": 4888,
      "ensive": 4889,
      "-in": 4890,
      "Ġì§ģ": 4891,
      "ello": 4892,
      "Ġclaim": 4893,
      "wood": 4894,
      "Ġmeas": 4895,
      "ĠCalifornia": 4896,
      "à¤¾à¤¯": 4897,
      "erd": 4898,
      "ÙĩØ§": 4899,
      "Ġhealth": 4900,
      "FF": 4901,
      "ĠÃī": 4902,
      "ĠEin": 4903,
      "ĠKh": 4904,
      "Ġinput": 4905,
      "ĠMat": 4906,
      "duced": 4907,
      "Ġreally": 4908,
      "Ġcommune": 4909,
      "Ġregion": 4910,
      "____": 4911,
      "ìŀħëĭĪëĭ¤": 4912,
      "Ġstudy": 4913,
      "AA": 4914,
      "Ġfue": 4915,
      "ĠIndia": 4916,
      "iding": 4917,
      "Ġdam": 4918,
      "ĠJack": 4919,
      "igr": 4920,
      "Ġsepar": 4921,
      "æĹ¶": 4922,
      "å±±": 4923,
      "/s": 4924,
      "aker": 4925,
      "Ġsex": 4926,
      "anda": 4927,
      "ë§Ŀ": 4928,
      "Ã´ng": 4929,
      "Ġste": 4930,
      "ological": 4931,
      "Model": 4932,
      "íķŃ": 4933,
      "pring": 4934,
      "æīĭ": 4935,
      "icos": 4936,
      "Ġsie": 4937,
      "ìĬ¤íĬ¸": 4938,
      "ising": 4939,
      "ething": 4940,
      "########": 4941,
      "Int": 4942,
      "ä½ł": 4943,
      "ĠAmerica": 4944,
      "Ġdistrict": 4945,
      "ìħĺ": 4946,
      "((": 4947,
      "ĠHall": 4948,
      "div": 4949,
      "íĥĿ": 4950,
      "Ġimpro": 4951,
      "æľĥ": 4952,
      "ĠDivision": 4953,
      "older": 4954,
      "ĠCons": 4955,
      "ëª©": 4956,
      "Ġnicht": 4957,
      "Ġtoget": 4958,
      "ĠPre": 4959,
      "Ġìĸĳ": 4960,
      "Ġbegin": 4961,
      "ãģ¦ãģĦ": 4962,
      "ĠSol": 4963,
      "ĠBo": 4964,
      "ĠíĻľ": 4965,
      "Ph": 4966,
      "Ġtogether": 4967,
      "Ġmo": 4968,
      "ĠGold": 4969,
      "gi": 4970,
      "ëıħ": 4971,
      "íķ´ìĦľ": 4972,
      "plit": 4973,
      "Ġmeet": 4974,
      "ĠRobert": 4975,
      ".add": 4976,
      "ëģ": 4977,
      "Ġdom": 4978,
      "Ġwritten": 4979,
      "_name": 4980,
      "Ġkeep": 4981,
      "182": 4982,
      "$\\": 4983,
      "ĊĊĊĊ": 4984,
      "à¤¿à¤¨": 4985,
      "ĠCanada": 4986,
      "\".ĊĊ": 4987,
      "label": 4988,
      "ker": 4989,
      "ĠOb": 4990,
      "mar": 4991,
      "ãħİ": 4992,
      "Ġdescribed": 4993,
      "ĠíķĦ": 4994,
      "çī©": 4995,
      "ãģ£ãģŁ": 4996,
      "ĠÙĥ": 4997,
      "ĠTor": 4998,
      "Ġê°ģ": 4999,
      "Ġmodern": 5000,
      "';Ċ": 5001,
      "åħ¶": 5002,
      "ë´": 5003,
      "anks": 5004,
      "Ġao": 5005,
      "Be": 5006,
      "Ġhold": 5007,
      "ready": 5008,
      "iddle": 5009,
      "Ġhalf": 5010,
      "arr": 5011,
      "Ġoder": 5012,
      "(n": 5013,
      "Ġtá»": 5014,
      "Ġëģ": 5015,
      "à¤¶": 5016,
      "Ġdecl": 5017,
      "Ġbetter": 5018,
      "ãĥķ": 5019,
      "At": 5020,
      "ĠFrank": 5021,
      "à¸£à¸°": 5022,
      "ĠìĿĮ": 5023,
      "akt": 5024,
      "à¤¨à¤¾": 5025,
      "este": 5026,
      "ivo": 5027,
      "(p": 5028,
      "Set": 5029,
      "Ġsind": 5030,
      "Ġonline": 5031,
      "ãĤ¸": 5032,
      "Ġ},Ċ": 5033,
      "ä¸ī": 5034,
      "ĠLeg": 5035,
      "é¦": 5036,
      "estival": 5037,
      "yth": 5038,
      "ibrary": 5039,
      "Ġlittle": 5040,
      "Ġlove": 5041,
      "·¨": 5042,
      "-g": 5043,
      "Info": 5044,
      "ĠfÃ¶r": 5045,
      "Ġsua": 5046,
      "ograf": 5047,
      "enz": 5048,
      "unch": 5049,
      "Ġà¤¨à¥ĩ": 5050,
      "ĠPresident": 5051,
      "ĠÃ¡": 5052,
      "hold": 5053,
      "Ġnor": 5054,
      "Ġconnect": 5055,
      "_T": 5056,
      "Ġmultip": 5057,
      "Ġcolor": 5058,
      "03": 5059,
      "à¸Ĺà¸µà¹Ī": 5060,
      "ption": 5061,
      "uments": 5062,
      "nya": 5063,
      "Ġnec": 5064,
      "rian": 5065,
      "Ġeiner": 5066,
      "ĠìĥĿê°ģ": 5067,
      "If": 5068,
      "udi": 5069,
      "OT": 5070,
      "ê´ĳ": 5071,
      "ëĭ¤ê³ł": 5072,
      "Ġtit": 5073,
      "Ġê²½ìļ°": 5074,
      "181": 5075,
      "ĠWeb": 5076,
      "ĠEs": 5077,
      "Ġut": 5078,
      "ĠDel": 5079,
      "Ġmá»Ļt": 5080,
      "Bl": 5081,
      "Ġemploy": 5082,
      "ĠMuse": 5083,
      "omet": 5084,
      "Ġhuman": 5085,
      "Ġinflu": 5086,
      "icas": 5087,
      "eles": 5088,
      "Ġconv": 5089,
      "Ġhowever": 5090,
      "ĠnÃ£o": 5091,
      "$,": 5092,
      "dis": 5093,
      "ae": 5094,
      "Ġmes": 5095,
      "Ġsource": 5096,
      "api": 5097,
      "Ġdeterm": 5098,
      "ĠCenter": 5099,
      "ĠìķĦëĭĪ": 5100,
      "Ġmiss": 5101,
      "UR": 5102,
      "68": 5103,
      "ãĥŃ": 5104,
      "ÅĦ": 5105,
      "Ġfather": 5106,
      "Ġrelations": 5107,
      "Ġbelie": 5108,
      "alle": 5109,
      "ĠRoman": 5110,
      "ëĦĪ": 5111,
      "oms": 5112,
      "item": 5113,
      "--------------------------------": 5114,
      "rip": 5115,
      "150": 5116,
      "Ġstep": 5117,
      "ĠÑĩ": 5118,
      "Ä±ÅŁ": 5119,
      "ĠÐĴ": 5120,
      "éĢļ": 5121,
      "å¤©": 5122,
      "77": 5123,
      "Ġparam": 5124,
      "ede": 5125,
      "è£": 5126,
      "And": 5127,
      "ĠWil": 5128,
      "Æ°á»£c": 5129,
      "elling": 5130,
      "Ġphot": 5131,
      "ĠìĥĪ": 5132,
      "Ġadministr": 5133,
      "andid": 5134,
      "è¥": 5135,
      "Ġpast": 5136,
      "aten": 5137,
      "================": 5138,
      "ĠGovern": 5139,
      "ĠArch": 5140,
      "Ġmight": 5141,
      "Ġzur": 5142,
      "ĉreturn": 5143,
      "Ġgot": 5144,
      "ises": 5145,
      "uration": 5146,
      "Ġparte": 5147,
      "mm": 5148,
      "otal": 5149,
      "ership": 5150,
      "gs": 5151,
      "Ġpred": 5152,
      "ÐµÐ´": 5153,
      "isl": 5154,
      ".\"ĊĊ": 5155,
      "Ġfurther": 5156,
      "Ġeither": 5157,
      "Ġimage": 5158,
      "èī": 5159,
      "ixed": 5160,
      "ĠEuropean": 5161,
      "ìł¸": 5162,
      "å¤ĸ": 5163,
      "odule": 5164,
      "çĪ": 5165,
      "Ġë³¸": 5166,
      "ĠRoad": 5167,
      "Ã¡t": 5168,
      "rs": 5169,
      "ë°ķ": 5170,
      "Ġpi": 5171,
      "../": 5172,
      "ĠChina": 5173,
      "Ġalways": 5174,
      "ocation": 5175,
      "Ġcustom": 5176,
      "Ð°Ñı": 5177,
      "è¶": 5178,
      "rea": 5179,
      "ëĸ": 5180,
      "Ð°Ð¼": 5181,
      "aar": 5182,
      "ĠSub": 5183,
      "#include": 5184,
      "Ġê°Ħ": 5185,
      "ĠìĤ´": 5186,
      "Ġaway": 5187,
      "Ġhat": 5188,
      "Ġstar": 5189,
      "Ġassoci": 5190,
      "Ġtarget": 5191,
      "ciÃ³n": 5192,
      "èŃ": 5193,
      "Ġë¥": 5194,
      ">>": 5195,
      "èĭ": 5196,
      "ĠìĤ°": 5197,
      "uv": 5198,
      "Ġconfig": 5199,
      "Ø«": 5200,
      "-st": 5201,
      "Ġì¢ħ": 5202,
      "Ġlive": 5203,
      "Map": 5204,
      "ĠMichael": 5205,
      "Ġê¸Ī": 5206,
      "unc": 5207,
      "ëŁ¼": 5208,
      "ÈĻi": 5209,
      "Ġëª©": 5210,
      "Ġmach": 5211,
      "cz": 5212,
      "icles": 5213,
      "IL": 5214,
      "Ġdefault": 5215,
      "Ġwhe": 5216,
      "Ent": 5217,
      "Ġíķ¨ê»ĺ": 5218,
      "Ġalt": 5219,
      "ellow": 5220,
      "ĠSl": 5221,
      "Ġpage": 5222,
      "Ġë³Ģ": 5223,
      "Ġindic": 5224,
      "Ġtour": 5225,
      "Ġaward": 5226,
      "OM": 5227,
      "rect": 5228,
      "ìłĪ": 5229,
      "ĠOut": 5230,
      "Ġlik": 5231,
      "mo": 5232,
      "utton": 5233,
      "andom": 5234,
      "ÑĢÑĥ": 5235,
      "52": 5236,
      "-R": 5237,
      "ÃŃs": 5238,
      "áº§": 5239,
      "ãĤ«": 5240,
      "data": 5241,
      "Ġaction": 5242,
      "ĠBay": 5243,
      "-H": 5244,
      "')Ċ": 5245,
      "ikan": 5246,
      "ÙĬØ±": 5247,
      "isi": 5248,
      "Æ°á»Ŀ": 5249,
      "Ġmai": 5250,
      "ìĺ¨": 5251,
      "ÐµÐ¹": 5252,
      "Ġterrit": 5253,
      "Ġpersonal": 5254,
      "nection": 5255,
      "Ġfoc": 5256,
      "Ġang": 5257,
      "Ġprovide": 5258,
      "Ġfa": 5259,
      "Ġannounced": 5260,
      "ëĭĺ": 5261,
      "eds": 5262,
      "Ġgrand": 5263,
      "With": 5264,
      "Ġíŀ": 5265,
      "ares": 5266,
      "ady": 5267,
      "Ġworked": 5268,
      "iten": 5269,
      "ged": 5270,
      "anz": 5271,
      "Event": 5272,
      "osa": 5273,
      "ĠìĽĶ": 5274,
      "imate": 5275,
      "rest": 5276,
      "Ġothers": 5277,
      "ìķĺëĭ¤": 5278,
      "book": 5279,
      "Ø°": 5280,
      "Ġwird": 5281,
      "400": 5282,
      "Ġabs": 5283,
      "æķ°": 5284,
      "Ġ;": 5285,
      "https": 5286,
      "Ġsen": 5287,
      "à¤¡à¤¼": 5288,
      "Ġdate": 5289,
      "ĠThomas": 5290,
      "acional": 5291,
      "iva": 5292,
      "à¤¹à¥Ģ": 5293,
      "ĠOlymp": 5294,
      "_P": 5295,
      "most": 5296,
      "Ġlanguage": 5297,
      "Ġëĵ¤ìĸ´": 5298,
      "inh": 5299,
      "Ġrelig": 5300,
      "Ġprofessional": 5301,
      "Ġíģ¬": 5302,
      "ÐµÐº": 5303,
      "Ġblack": 5304,
      "ĠìłĲ": 5305,
      "Ġacross": 5306,
      "Ġíķ©": 5307,
      "éŁ": 5308,
      "åħ¨": 5309,
      "Ġperformance": 5310,
      "Ġens": 5311,
      "Ġbig": 5312,
      "Ġhar": 5313,
      "ami": 5314,
      "Ġrespons": 5315,
      "íķĺì§Ģ": 5316,
      "Ġrom": 5317,
      "-T": 5318,
      "à¤Ń": 5319,
      "itted": 5320,
      "Ġresponse": 5321,
      "Ġindepend": 5322,
      "New": 5323,
      ".R": 5324,
      "list": 5325,
      "Ġandroid": 5326,
      "èĤ": 5327,
      "ĠcÃ³": 5328,
      "After": 5329,
      "çı": 5330,
      "ĠÄĳÆ°á»£c": 5331,
      "stance": 5332,
      "à¤¾à¤¦": 5333,
      ".T": 5334,
      "51": 5335,
      "å¿ĥ": 5336,
      "ĠíĪ¬": 5337,
      "ĠProv": 5338,
      "Ġask": 5339,
      "ĠMo": 5340,
      "Ġê²ĥìĿ´": 5341,
      "uge": 5342,
      "Ġtrack": 5343,
      "ç®": 5344,
      "ãģĤãĤĭ": 5345,
      "Ġunt": 5346,
      "ĠPress": 5347,
      "Ġleast": 5348,
      "ìĹĲìĦľëĬĶ": 5349,
      "_in": 5350,
      "à¸ģà¸²à¸£": 5351,
      "Ġonce": 5352,
      "ĠØ§ÙĦØ£": 5353,
      "Ġfeatures": 5354,
      "Ġach": 5355,
      "Ġsobre": 5356,
      "åº¦": 5357,
      "agn": 5358,
      "Ġbirth": 5359,
      "OD": 5360,
      "asc": 5361,
      "yt": 5362,
      "ĠTom": 5363,
      "Ġkon": 5364,
      "inary": 5365,
      "rc": 5366,
      "Ġstrong": 5367,
      "Ġfront": 5368,
      "box": 5369,
      "aria": 5370,
      "ogle": 5371,
      ".app": 5372,
      "ĠÐŁ": 5373,
      "ribute": 5374,
      "ils": 5375,
      "ÙĪÙĦ": 5376,
      "ĠSur": 5377,
      "roy": 5378,
      "Ġaddition": 5379,
      "Ġevents": 5380,
      "ĠAssociation": 5381,
      "æ°ĳ": 5382,
      "ë¶ģ": 5383,
      "ç«ĭ": 5384,
      "Ġíĺ¸": 5385,
      "UL": 5386,
      "Ġtable": 5387,
      "iting": 5388,
      "amer": 5389,
      "Ġsugg": 5390,
      "ä½į": 5391,
      "æĺİ": 5392,
      "iert": 5393,
      "ìĿ´ëĿ¼ê³ł": 5394,
      "bo": 5395,
      "Ġvor": 5396,
      "stra": 5397,
      "åĲİ": 5398,
      "Ġtelevision": 5399,
      "éĸĵ": 5400,
      "ĠWash": 5401,
      "ns": 5402,
      "idae": 5403,
      "Ġreturned": 5404,
      "Form": 5405,
      "ĠLaw": 5406,
      "ĠCharles": 5407,
      "rec": 5408,
      "aves": 5409,
      "cription": 5410,
      "ĠIndian": 5411,
      "ãģĬ": 5412,
      "åĮĸ": 5413,
      "à¤¨à¥įà¤": 5414,
      "è¥¿": 5415,
      "ĠTur": 5416,
      "fect": 5417,
      "ĠÑĢÐ°": 5418,
      "sub": 5419,
      "Ġê²ĥìľ¼ë¡ľ": 5420,
      "ĠMel": 5421,
      "ë¦¬ëĬĶ": 5422,
      "ĠÙĪØ§ÙĦ": 5423,
      "Ġproduced": 5424,
      "No": 5425,
      "è¡¨": 5426,
      "íĻ©": 5427,
      "ê¸°ë¥¼": 5428,
      "Ġà¤«": 5429,
      "acc": 5430,
      "69": 5431,
      "Ġvá»": 5432,
      "à¤¾à¤¸": 5433,
      "rich": 5434,
      "ī´": 5435,
      "ìĸ¸": 5436,
      "Ġod": 5437,
      "reek": 5438,
      "ĠFrom": 5439,
      "ĠTown": 5440,
      "å¹³": 5441,
      "è¢": 5442,
      "ĠEnt": 5443,
      "åĬł": 5444,
      "AG": 5445,
      "Ġrequired": 5446,
      "ĠFrancis": 5447,
      "lor": 5448,
      "67": 5449,
      "tml": 5450,
      "Ġattempt": 5451,
      "Ġgive": 5452,
      "ë³ĳ": 5453,
      "Ġdim": 5454,
      "Ġsurv": 5455,
      "ĠCamp": 5456,
      "çĦ¶": 5457,
      "Ġdari": 5458,
      "ĠCouncil": 5459,
      "Ġemb": 5460,
      "ĠCompany": 5461,
      "pose": 5462,
      "ĠLouis": 5463,
      "CC": 5464,
      "uts": 5465,
      "Ġmi": 5466,
      "ums": 5467,
      "ĠUp": 5468,
      "ĠFe": 5469,
      "ĠGod": 5470,
      "ĠMary": 5471,
      "resp": 5472,
      "Ġinterest": 5473,
      "nel": 5474,
      "à¹Īà¸²à¸": 5475,
      "Ġ...": 5476,
      "war": 5477,
      "ĠArmy": 5478,
      "ened": 5479,
      "å¦Ĥ": 5480,
      "Ġë°ķ": 5481,
      "sten": 5482,
      "Acc": 5483,
      "ĠaÃ±": 5484,
      "cial": 5485,
      "íĪ¬": 5486,
      "ìĹĲëıĦ": 5487,
      "ä¸ĸ": 5488,
      "reate": 5489,
      "///": 5490,
      "Ġroad": 5491,
      "Ġáħ²": 5492,
      "Ġ)Ċ": 5493,
      "æ¼": 5494,
      "You": 5495,
      "ĠJo": 5496,
      "Ġalready": 5497,
      "ysis": 5498,
      "Ġsel": 5499,
      "Ġsomething": 5500,
      "ĠNone": 5501,
      "ĠGrand": 5502,
      "ĠNotes": 5503,
      "ving": 5504,
      "bers": 5505,
      "æĢ§": 5506,
      "ĠSil": 5507,
      "è´": 5508,
      "Ġrequire": 5509,
      "Ġwrote": 5510,
      "Ġappoint": 5511,
      "asa": 5512,
      "ĠíķĺëĬĶ": 5513,
      "ê²ĥ": 5514,
      "ĠVir": 5515,
      "ì±ħ": 5516,
      "ª½": 5517,
      "Ġpolitical": 5518,
      "ĠMiss": 5519,
      "Ġzijn": 5520,
      "Ġê°ĻìĿĢ": 5521,
      "ĠPeter": 5522,
      "Ġini": 5523,
      "();ĊĊ": 5524,
      "ĠJust": 5525,
      "imum": 5526,
      "Ġì§ĢëĤľ": 5527,
      "ĠDen": 5528,
      "Ġseb": 5529,
      "Ġzum": 5530,
      "Ed": 5531,
      "iler": 5532,
      "Ġsuff": 5533,
      "Ġliter": 5534,
      "Ġì§ĢìĹŃ": 5535,
      "Ġconsidered": 5536,
      "Ġdirector": 5537,
      "Ġmel": 5538,
      "azione": 5539,
      "ibility": 5540,
      "cho": 5541,
      "Ġvot": 5542,
      "Ġëł": 5543,
      "Ġì²Ń": 5544,
      "Ġteach": 5545,
      "hal": 5546,
      "Ġnie": 5547,
      "Ġoutput": 5548,
      "ols": 5549,
      "ĠRoyal": 5550,
      "User": 5551,
      "ĠíķľêµŃ": 5552,
      "ì¡Į": 5553,
      "Ġrap": 5554,
      "Ġsound": 5555,
      "isation": 5556,
      "Ġpur": 5557,
      "Ġà¤Ńà¥Ģ": 5558,
      "band": 5559,
      "eller": 5560,
      "Ġassist": 5561,
      "ef": 5562,
      "åİ»": 5563,
      "ãĤģ": 5564,
      "mon": 5565,
      "oul": 5566,
      "ĠClass": 5567,
      "****************": 5568,
      "æĶ¿": 5569,
      "éĩĮ": 5570,
      "ĠĠĊ": 5571,
      "Ġlost": 5572,
      "Ġot": 5573,
      "Ġì²ĺ": 5574,
      "ĠOl": 5575,
      "ĠØ§ÙĦØª": 5576,
      "adian": 5577,
      "BN": 5578,
      "ĠTeam": 5579,
      "ëĭ´": 5580,
      "ĠíĨµíķ´": 5581,
      "mu": 5582,
      "Ġintern": 5583,
      "Ġjob": 5584,
      "ĠCD": 5585,
      "rey": 5586,
      "íķĺëĭ¤": 5587,
      "åĬĽ": 5588,
      "umer": 5589,
      "hn": 5590,
      "Ġìĭľìŀĳ": 5591,
      "æ©": 5592,
      "ĠCentral": 5593,
      "Ġareas": 5594,
      "ìĶ¨": 5595,
      "atan": 5596,
      "ocr": 5597,
      "Ġthings": 5598,
      "ouch": 5599,
      "apter": 5600,
      "ental": 5601,
      "Ġstop": 5602,
      "ĠHa": 5603,
      "ĠAcadem": 5604,
      "Context": 5605,
      "Ġlength": 5606,
      "ĠUnion": 5607,
      "medi": 5608,
      "åł´": 5609,
      "ncia": 5610,
      "ä½¿": 5611,
      "(this": 5612,
      "igu": 5613,
      "Ġparty": 5614,
      "Â°": 5615,
      "Field": 5616,
      "Ġbit": 5617,
      "Ġcertain": 5618,
      "éĸĭ": 5619,
      "Ġcast": 5620,
      "ĠDay": 5621,
      "Ġhot": 5622,
      "Ġinform": 5623,
      "aba": 5624,
      "ĠJun": 5625,
      "Ġelection": 5626,
      "ĠJose": 5627,
      "ĠíĶĦë¡ľ": 5628,
      "é¢": 5629,
      "imm": 5630,
      "ĠIsland": 5631,
      "ederal": 5632,
      "ãģĭãĤī": 5633,
      "54": 5634,
      "į¼": 5635,
      "Ġmid": 5636,
      "iller": 5637,
      "Ð¸Ñģ": 5638,
      "atre": 5639,
      "Ġëĭ¤ë¥¸": 5640,
      "Ġbelow": 5641,
      "ĠDef": 5642,
      "ori": 5643,
      "Ġrelease": 5644,
      "Ġë²Ī": 5645,
      "aha": 5646,
      "Ġtreat": 5647,
      "Ġuntuk": 5648,
      "Ġmonths": 5649,
      "ĠWashington": 5650,
      "ĠGet": 5651,
      "ÙĪÙĨ": 5652,
      "ags": 5653,
      "ĠLo": 5654,
      "Ġlat": 5655,
      "There": 5656,
      "'un": 5657,
      "OL": 5658,
      "udio": 5659,
      ")ĊĊĊ": 5660,
      "From": 5661,
      "angle": 5662,
      "98": 5663,
      "Ġvict": 5664,
      "à¤°à¥Ģ": 5665,
      "Ġì¦Ŀ": 5666,
      "Ġlie": 5667,
      "Ġmedia": 5668,
      "à¤¾à¤ľ": 5669,
      "Ġmarried": 5670,
      "ĠDi": 5671,
      "Ġunter": 5672,
      "bit": 5673,
      "ĠThat": 5674,
      "volution": 5675,
      "Ġtraining": 5676,
      "Ġ+=": 5677,
      "Of": 5678,
      "Ġmeans": 5679,
      "Ġíİ¸": 5680,
      "iento": 5681,
      "ĠíĥĢ": 5682,
      "airs": 5683,
      "ĠĠĠĠĠĠĠĠĠĠĠĠĠ": 5684,
      "ëŀľ": 5685,
      "ĠFlor": 5686,
      "Ġlib": 5687,
      "Ġconsist": 5688,
      "Ġlot": 5689,
      "ìĿ´ëĤĺ": 5690,
      "íķĺìĺĢëĭ¤": 5691,
      "type": 5692,
      "asing": 5693,
      "ĠAdd": 5694,
      "ĠFr": 5695,
      "ĠIr": 5696,
      "53": 5697,
      "orial": 5698,
      "ĠnÄĥm": 5699,
      "lean": 5700,
      "Ġaux": 5701,
      "Ġvoc": 5702,
      "ston": 5703,
      "ĠÐļ": 5704,
      "aka": 5705,
      "Ġcontract": 5706,
      "ëĵ¤ìĿĦ": 5707,
      "ĠÐ¿ÑĢ": 5708,
      "Ġdouble": 5709,
      "Ġaverage": 5710,
      "UN": 5711,
      "Ġlink": 5712,
      "Ġvalues": 5713,
      "Ġthrow": 5714,
      "][": 5715,
      "$$": 5716,
      "arter": 5717,
      "ila": 5718,
      "ĠPan": 5719,
      "Ġì´Ŀ": 5720,
      "çŃī": 5721,
      "\"\"": 5722,
      "chaft": 5723,
      "Ã¤n": 5724,
      "ĠSa": 5725,
      "ĠCong": 5726,
      "Ġbes": 5727,
      "Ġalign": 5728,
      "iqu": 5729,
      "'A": 5730,
      "ì¶Ķ": 5731,
      "ĠĠĠĠĊ": 5732,
      "ĠRob": 5733,
      "Ġregular": 5734,
      "ping": 5735,
      "ãģĳ": 5736,
      "è½": 5737,
      "Ġë©Ķ": 5738,
      "nder": 5739,
      "Ġrow": 5740,
      "çī¹": 5741,
      "áº¡i": 5742,
      "Ð¾Ð±": 5743,
      "ĠBill": 5744,
      "Ġcreat": 5745,
      "awa": 5746,
      "Path": 5747,
      "Ġshows": 5748,
      "ategory": 5749,
      "Ġoffic": 5750,
      "ÃŃn": 5751,
      "ĠAwards": 5752,
      "lan": 5753,
      "ĠTime": 5754,
      "ĠëĨĴ": 5755,
      "har": 5756,
      "_D": 5757,
      "Ġclear": 5758,
      "à¤¤à¥ĩ": 5759,
      "Ġoffice": 5760,
      "ĠSuper": 5761,
      "ĵ°": 5762,
      "ĠØŃ": 5763,
      "aign": 5764,
      "ĠGreen": 5765,
      "Ġadded": 5766,
      "ĠBook": 5767,
      "ician": 5768,
      "Ġdone": 5769,
      "Ãłi": 5770,
      "à¥įà¤·": 5771,
      "iki": 5772,
      "Ġground": 5773,
      "ynam": 5774,
      "Ġpolic": 5775,
      "ĠJean": 5776,
      "Ġcross": 5777,
      "èĻ": 5778,
      "ĠBi": 5779,
      "Ġì¹ĺ": 5780,
      "Config": 5781,
      "Ġdefe": 5782,
      "cell": 5783,
      "ku": 5784,
      "Ġobtain": 5785,
      ")\\": 5786,
      "etz": 5787,
      "Ġê°ĢëĬ¥": 5788,
      "Ġseen": 5789,
      "179": 5790,
      "inder": 5791,
      "Ġcourse": 5792,
      "oke": 5793,
      "ĠPost": 5794,
      "ä»¬": 5795,
      "entes": 5796,
      "ĠUK": 5797,
      "ĠsiÄĻ": 5798,
      "ì¶ķ": 5799,
      "Ġplant": 5800,
      "ĠTex": 5801,
      "ĠVict": 5802,
      "ê¸°ëıĦ": 5803,
      "Ð¾ÑģÑĤ": 5804,
      "Ġrequest": 5805,
      "Ġclose": 5806,
      "æŁ": 5807,
      "Ġmessage": 5808,
      "Ġsignificant": 5809,
      "enden": 5810,
      "ibli": 5811,
      "Ġfilms": 5812,
      "istry": 5813,
      "error": 5814,
      "Ġviol": 5815,
      "ospital": 5816,
      "ĠÈĻi": 5817,
      "Ġdebut": 5818,
      "ughter": 5819,
      "ĠíĮĲ": 5820,
      "lant": 5821,
      "iÃ³": 5822,
      "ĠRichard": 5823,
      "Ġenergy": 5824,
      "-year": 5825,
      ",\\": 5826,
      "Ġfeel": 5827,
      "max": 5828,
      "jet": 5829,
      "atform": 5830,
      "pat": 5831,
      "._": 5832,
      "Ġsil": 5833,
      "sole": 5834,
      "äºİ": 5835,
      "Ġspecific": 5836,
      "arts": 5837,
      "Ġpal": 5838,
      "cks": 5839,
      "ube": 5840,
      "Up": 5841,
      "ĠëĶ°ëĿ¼": 5842,
      "Ġdoor": 5843,
      "result": 5844,
      "merican": 5845,
      "irl": 5846,
      "'Ã©": 5847,
      "ì¿": 5848,
      "lichen": 5849,
      "ĠMex": 5850,
      "Ġmoment": 5851,
      "iden": 5852,
      "config": 5853,
      "Ġquestion": 5854,
      "Ġjoined": 5855,
      "Ġelement": 5856,
      "íıī": 5857,
      "ĠWork": 5858,
      "Ġprotect": 5859,
      "abe": 5860,
      "ĠTop": 5861,
      "Ġhor": 5862,
      "ĠOpen": 5863,
      "Ġrail": 5864,
      "Ġtill": 5865,
      "cover": 5866,
      "Ġbroad": 5867,
      "Ľi": 5868,
      "ĠMen": 5869,
      "Ġagre": 5870,
      "ãĤĵ": 5871,
      "Ġya": 5872,
      "ĠOs": 5873,
      "æĿ±": 5874,
      "Ġsection": 5875,
      "Ø§Ø³": 5876,
      "ëĨ": 5877,
      "ĠWhite": 5878,
      "Ġà¤µà¤¿à¤": 5879,
      "ĠìķĦìĿ´": 5880,
      "shire": 5881,
      "Ġcompan": 5882,
      "ĠÄĲ": 5883,
      "Ġprot": 5884,
      "ë³´ëĭ¤": 5885,
      "ĠPo": 5886,
      "Ġrecogn": 5887,
      "ĠOp": 5888,
      "Ġfire": 5889,
      "Ġë§ŀ": 5890,
      ".n": 5891,
      "ĠíĸĪëĭ¤": 5892,
      "_h": 5893,
      "ĠAustralian": 5894,
      "aries": 5895,
      "Ġchurch": 5896,
      "het": 5897,
      "chan": 5898,
      "unity": 5899,
      "Ġill": 5900,
      "æĦı": 5901,
      "ĠGar": 5902,
      "perties": 5903,
      "rt": 5904,
      "Ġnu": 5905,
      "ĠGi": 5906,
      "Ġeducation": 5907,
      "Ġanim": 5908,
      "ìĥī": 5909,
      "riter": 5910,
      "ĠìŀĦ": 5911,
      "Ġmilitary": 5912,
      "Ġà¤ĸ": 5913,
      "Ġprovided": 5914,
      "Index": 5915,
      "ÐµÐ²": 5916,
      "lick": 5917,
      "Ĳëĭ¤": 5918,
      "Ġti": 5919,
      "Ġpan": 5920,
      "Ġmor": 5921,
      "Ġloss": 5922,
      "Ġopened": 5923,
      "ãĤ³": 5924,
      "æŃ£": 5925,
      "ĠWin": 5926,
      "å¯¹": 5927,
      "mod": 5928,
      "ĠMod": 5929,
      "ĠFin": 5930,
      "IG": 5931,
      "Node": 5932,
      "Ġpromot": 5933,
      "Ùİ": 5934,
      "Ġautom": 5935,
      "Ġdon't": 5936,
      "Act": 5937,
      "olean": 5938,
      "Ġíħ": 5939,
      "izer": 5940,
      "Ġ(\"": 5941,
      "ead": 5942,
      "Ð°Ð²": 5943,
      "ĠChristian": 5944,
      "ãģĿ": 5945,
      "olo": 5946,
      "EM": 5947,
      "ĠDirect": 5948,
      "ĠíķĺëĤĺ": 5949,
      "Ø§Ø¯": 5950,
      "æľŁ": 5951,
      "çĿĢ": 5952,
      "mit": 5953,
      "mes": 5954,
      "à¸±à¸Ļ": 5955,
      "Ġbene": 5956,
      "egen": 5957,
      "ìĸ´ìĦľ": 5958,
      ">(": 5959,
      "Ġì²´": 5960,
      "-up": 5961,
      "CH": 5962,
      "Ġtaken": 5963,
      "erman": 5964,
      "Ġtrong": 5965,
      "Ġcoach": 5966,
      "ĠìĦłìĪĺ": 5967,
      "Ġsuccessful": 5968,
      "Ġà¤¸à¤Ĥ": 5969,
      "çģ": 5970,
      "undo": 5971,
      "ĠTra": 5972,
      "Ġrock": 5973,
      "ĠRock": 5974,
      "ĠMinister": 5975,
      "ê¸¸": 5976,
      "atives": 5977,
      "ëłĪìĿ´": 5978,
      "Ġcontent": 5979,
      "à¤Ī": 5980,
      "PS": 5981,
      "oles": 5982,
      "utions": 5983,
      "Ã©g": 5984,
      "à¤ķà¥ĩ": 5985,
      "çĽ®": 5986,
      ".is": 5987,
      "ĠìĺģíĻĶ": 5988,
      "Ġìķ½": 5989,
      "ky": 5990,
      "array": 5991,
      "ĠGermany": 5992,
      "Ġnatural": 5993,
      "aki": 5994,
      "Äģ": 5995,
      "Ġequip": 5996,
      "ç¤¾": 5997,
      "fr": 5998,
      "cher": 5999,
      "ahl": 6000,
      "ĠCourt": 6001,
      "Ġcentral": 6002,
      "Request": 6003,
      "Ġuns": 6004,
      "Ġë§Ľ": 6005,
      "Ġcompon": 6006,
      "Ġprem": 6007,
      "AB": 6008,
      "ono": 6009,
      "ëĶ": 6010,
      "Ġintegr": 6011,
      "Ġà¤ķà¤¿": 6012,
      "TV": 6013,
      "Ġbecom": 6014,
      "Ð»Ñı": 6015,
      "Ø±ÙĬ": 6016,
      "ãĤ°": 6017,
      "Ġcam": 6018,
      "ĠGreat": 6019,
      ".e": 6020,
      "atory": 6021,
      "Manager": 6022,
      "tex": 6023,
      "åİŁ": 6024,
      "Ġboard": 6025,
      "map": 6026,
      "ãĤ£": 6027,
      "ĠMount": 6028,
      "ĠIII": 6029,
      "Ġrunning": 6030,
      "./": 6031,
      "mark": 6032,
      "ĠPublic": 6033,
      "Ġconstruct": 6034,
      "Ġaddress": 6035,
      "ĠBur": 6036,
      "èº": 6037,
      "Ġsure": 6038,
      "ĠKe": 6039,
      "Ġfrequ": 6040,
      "ĠMuseum": 6041,
      "ilter": 6042,
      "æģ": 6043,
      "åĮĹ": 6044,
      "allen": 6045,
      "ĠCarl": 6046,
      "ãĥĨ": 6047,
      "åĽł": 6048,
      "Ġsens": 6049,
      "Ġprincip": 6050,
      "á»ĩ": 6051,
      "éĩĳ": 6052,
      "ëĿ": 6053,
      "çĶ±": 6054,
      "erve": 6055,
      "Ġë¥¼": 6056,
      "íĶĮ": 6057,
      "Ġë¯¼": 6058,
      ".W": 6059,
      "ittee": 6060,
      "aring": 6061,
      "hat": 6062,
      "Ġaw": 6063,
      "ĠIN": 6064,
      "alpha": 6065,
      "à¥ĩà¤¶": 6066,
      "Ĵ¤": 6067,
      "ĠìĨį": 6068,
      "ìķħ": 6069,
      "ributed": 6070,
      "ï¼ģ": 6071,
      "ĠDuring": 6072,
      "Ġps": 6073,
      "ç¾İ": 6074,
      "Ġthá»": 6075,
      "ëĲľëĭ¤": 6076,
      "Ġíĺķ": 6077,
      "è¯´": 6078,
      "çĽ¸": 6079,
      "fol": 6080,
      "ëĬĺ": 6081,
      "Class": 6082,
      "uto": 6083,
      "ĠLat": 6084,
      "FL": 6085,
      "down": 6086,
      "iche": 6087,
      "Component": 6088,
      "eler": 6089,
      "ĠScott": 6090,
      "uri": 6091,
      "ĠBa": 6092,
      "Ġacqu": 6093,
      "orage": 6094,
      "Ġ##": 6095,
      "Ġci": 6096,
      "ëĿ¼ëĬĶ": 6097,
      "];Ċ": 6098,
      "imento": 6099,
      "éĩį": 6100,
      "Ġ*Ċ": 6101,
      "æµ·": 6102,
      "ĠSociety": 6103,
      "elta": 6104,
      "Ġcomplex": 6105,
      "Ġnight": 6106,
      "æ¬¡": 6107,
      "gn": 6108,
      "iÃ©n": 6109,
      "rad": 6110,
      "Ġfood": 6111,
      "Ġìĭ¬": 6112,
      "Ġcred": 6113,
      "ëĲĺëĬĶ": 6114,
      "Equ": 6115,
      "Out": 6116,
      "ĠØ§ÙĦØ¹": 6117,
      "Ġses": 6118,
      "äºĮ": 6119,
      "Ġdip": 6120,
      "79": 6121,
      "Ġnames": 6122,
      "bour": 6123,
      "Ġproperty": 6124,
      "void": 6125,
      "ombre": 6126,
      "kh": 6127,
      "Ġtransfer": 6128,
      "ĠEnd": 6129,
      "ĠJos": 6130,
      "eli": 6131,
      "cd": 6132,
      "ĠÅŁ": 6133,
      "åĭķ": 6134,
      "Ġstandard": 6135,
      "Ġcer": 6136,
      "Ġblock": 6137,
      "imo": 6138,
      "Hand": 6139,
      "gram": 6140,
      "Ġstatus": 6141,
      "alah": 6142,
      "Ġexperience": 6143,
      "ì§ĢëĬĶ": 6144,
      "!(": 6145,
      "Ġindex": 6146,
      "Ġdivers": 6147,
      "Ġgroups": 6148,
      "å¼ı": 6149,
      "ensus": 6150,
      "Ġwhite": 6151,
      "Ġcontinued": 6152,
      ".org": 6153,
      "ĠØ³": 6154,
      "æķĻ": 6155,
      "ĠGeorg": 6156,
      "Ġì¡": 6157,
      "ĠOther": 6158,
      "Ġentire": 6159,
      "ĠOper": 6160,
      "Ġreported": 6161,
      "Ġweb": 6162,
      "ì°°": 6163,
      ".in": 6164,
      "Ġinstead": 6165,
      "ä½Ĩ": 6166,
      "Ã®": 6167,
      "ĠFinal": 6168,
      "åĿ": 6169,
      "Ġsoftware": 6170,
      "Ġë°Ŀ": 6171,
      "Ø§Ø¨": 6172,
      "Ġcard": 6173,
      "istics": 6174,
      "](": 6175,
      "Ð»Ð¸": 6176,
      "Ġcontinu": 6177,
      "ING": 6178,
      "à¥Į": 6179,
      "Def": 6180,
      "Ġà¤²à¤¿à¤ı": 6181,
      "des": 6182,
      "where": 6183,
      "Ġradio": 6184,
      "anger": 6185,
      "à¹īà¸²à¸": 6186,
      "asons": 6187,
      "respond": 6188,
      "Ġcele": 6189,
      "edy": 6190,
      "ºĲ": 6191,
      "Ġincludes": 6192,
      "isc": 6193,
      "\\Ċ": 6194,
      "aciones": 6195,
      "Ġmoney": 6196,
      "å·¥": 6197,
      "dev": 6198,
      "ì¸ł": 6199,
      "èĬ": 6200,
      "Ġorganiz": 6201,
      "Ġ{ĊĊ": 6202,
      "Ġpie": 6203,
      "Ġsearch": 6204,
      "ĠDepartment": 6205,
      "Ġpra": 6206,
      "Ser": 6207,
      "Ġprime": 6208,
      "Ġcapital": 6209,
      "change": 6210,
      "iance": 6211,
      "ĠSmith": 6212,
      "Ġdiscuss": 6213,
      "ãģĵãģ¨": 6214,
      "ĠSpec": 6215,
      "Ġnumer": 6216,
      "ĠRail": 6217,
      "Ġcenter": 6218,
      "liche": 6219,
      "Ġtax": 6220,
      "=\\": 6221,
      "Ãły": 6222,
      "elij": 6223,
      "Åį": 6224,
      "Ġíĳľ": 6225,
      "Size": 6226,
      "Ġgro": 6227,
      "iu": 6228,
      "Ġkind": 6229,
      "éķ·": 6230,
      "Ġëĸ": 6231,
      "ĠDet": 6232,
      "Ġcapt": 6233,
      "abase": 6234,
      "ĠPerson": 6235,
      "ãĤĦ": 6236,
      "ceed": 6237,
      "ĠSie": 6238,
      "Ġwife": 6239,
      "ëĲĺìĸ´": 6240,
      "acing": 6241,
      "aft": 6242,
      "auf": 6243,
      ".ex": 6244,
      "ĠProf": 6245,
      "Ã¼ck": 6246,
      "enced": 6247,
      "Łģ": 6248,
      "ëĪ": 6249,
      "Ð¾Ðº": 6250,
      "Ġdeveloped": 6251,
      "ging": 6252,
      "åĽŀ": 6253,
      "Ġìķŀ": 6254,
      "åĨħ": 6255,
      "ÐµÐ»ÑĮ": 6256,
      "External": 6257,
      "ì½": 6258,
      "åŃ¸": 6259,
      "Over": 6260,
      "ëĲĺìĹĪëĭ¤": 6261,
      "ĠTechn": 6262,
      "Ġmunicipal": 6263,
      "ĠResult": 6264,
      "inese": 6265,
      "')": 6266,
      "ëĮĢë¡ľ": 6267,
      "-e": 6268,
      "Ġ#[": 6269,
      "Ġrace": 6270,
      "åįĹ": 6271,
      "Ġnecess": 6272,
      "stant": 6273,
      "Ġmodels": 6274,
      "Ġconstruction": 6275,
      "lient": 6276,
      "Ġë§Įëĵ¤": 6277,
      "Ġaccept": 6278,
      "ĠëķĮë¬¸ìĹĲ": 6279,
      "Ġjun": 6280,
      "iste": 6281,
      "bon": 6282,
      "Ġsubject": 6283,
      "oved": 6284,
      "Ġaan": 6285,
      "ãĢı": 6286,
      "Ġteams": 6287,
      "åĪ©": 6288,
      "ĠëłĪ": 6289,
      "Ġdeal": 6290,
      "Ġissue": 6291,
      "Ġord": 6292,
      "Ġit's": 6293,
      "Ġê°Ģìŀ¥": 6294,
      "ĠÙĩ": 6295,
      "ç³": 6296,
      "à¤¾à¤¹": 6297,
      "\"ĊĊ": 6298,
      "à¹Ģà¸Ľ": 6299,
      "Die": 6300,
      "ĠPlay": 6301,
      "www": 6302,
      "Ġwie": 6303,
      "Ã©l": 6304,
      "quare": 6305,
      "ðŁ": 6306,
      "Ġcandid": 6307,
      "ĠTour": 6308,
      "orary": 6309,
      "120": 6310,
      "ĠBre": 6311,
      "olit": 6312,
      "ĠPop": 6313,
      "íĻľ": 6314,
      "obile": 6315,
      "Ð¸Ñħ": 6316,
      "uilder": 6317,
      "resh": 6318,
      "ĠHot": 6319,
      "owa": 6320,
      "Ġbad": 6321,
      "Ġwest": 6322,
      "Ġlower": 6323,
      "Ġ-Ċ": 6324,
      "Ġexecut": 6325,
      "è¢«": 6326,
      "Ġir": 6327,
      "ambda": 6328,
      "Ġwriting": 6329,
      "_M": 6330,
      "Ġbound": 6331,
      "Ġmap": 6332,
      "lections": 6333,
      "à¹ģà¸¥": 6334,
      "ĠAv": 6335,
      "Ġjud": 6336,
      "Ġdar": 6337,
      "ë²ł": 6338,
      "Ġfam": 6339,
      "ĠGal": 6340,
      "ĠìĨĲ": 6341,
      "Ġplaying": 6342,
      "Ġexpress": 6343,
      "Ġbool": 6344,
      "http": 6345,
      "ĠLove": 6346,
      "íļį": 6347,
      "udd": 6348,
      "Ġface": 6349,
      "kl": 6350,
      "Array": 6351,
      "ĠBus": 6352,
      "å½ĵ": 6353,
      "Ġsystems": 6354,
      "Ġmove": 6355,
      "Ġsein": 6356,
      "åĶĶ": 6357,
      "Pr": 6358,
      "ĠìĿ´íĽĦ": 6359,
      "Ġsigned": 6360,
      "Ġeinem": 6361,
      "Ġbox": 6362,
      "å¥³": 6363,
      "ì³": 6364,
      "rial": 6365,
      "itation": 6366,
      "Ġpada": 6367,
      "Ġêµ°": 6368,
      "à¥ī": 6369,
      "ordin": 6370,
      "Ġreb": 6371,
      "ĠArg": 6372,
      "known": 6373,
      "equation": 6374,
      "Ġtemper": 6375,
      "Ġscreen": 6376,
      "Ġih": 6377,
      "hen": 6378,
      "Ġstructure": 6379,
      "Ġ.ĊĊ": 6380,
      "ãĥŀ": 6381,
      "ëħĢ": 6382,
      "ĠMot": 6383,
      "ĠInstitute": 6384,
      "oute": 6385,
      "Ġìļ°ë¦¬": 6386,
      "Ġmount": 6387,
      "95": 6388,
      "ëĿ½": 6389,
      "embre": 6390,
      "à¹Īà¸Ń": 6391,
      "SS": 6392,
      "pite": 6393,
      "ë¨¸": 6394,
      "ĠíĴ": 6395,
      "OC": 6396,
      "utt": 6397,
      "Ġstates": 6398,
      "(b": 6399,
      "ëłĩê²Į": 6400,
      "ĠÙĤ": 6401,
      "Ġcommer": 6402,
      "edia": 6403,
      "Ġnel": 6404,
      "Ġëıħ": 6405,
      "Ġgraph": 6406,
      "ersion": 6407,
      "¼ë¡ľ": 6408,
      "Ġded": 6409,
      "ln": 6410,
      "ENT": 6411,
      "ĠRecords": 6412,
      "ĠEv": 6413,
      "Ġguitar": 6414,
      "ao": 6415,
      "èµ·": 6416,
      "Ġì¶ķ": 6417,
      "export": 6418,
      "Ġever": 6419,
      "ĠÐľ": 6420,
      "Ġrecorded": 6421,
      "IP": 6422,
      "Ġrev": 6423,
      "Ġsin": 6424,
      "Ġtim": 6425,
      "oir": 6426,
      "æĹ¥æľ¬": 6427,
      "Ġë¯¸êµŃ": 6428,
      "Ġfuture": 6429,
      "ĠInc": 6430,
      "asta": 6431,
      "Code": 6432,
      "ĠHel": 6433,
      "ï¼Ł": 6434,
      "}(": 6435,
      "amma": 6436,
      "çŁ¥": 6437,
      "})": 6438,
      "ëıĦë¡Ŀ": 6439,
      "atz": 6440,
      "ĠSon": 6441,
      "mann": 6442,
      "à¤¤à¥Ģ": 6443,
      "Ġetc": 6444,
      "ĠëıĮ": 6445,
      "olution": 6446,
      "itude": 6447,
      "idades": 6448,
      "Ġliving": 6449,
      "ĠKn": 6450,
      "aval": 6451,
      "Ġfol": 6452,
      "Ġinitial": 6453,
      "Ġdraw": 6454,
      "ĠëĶĶ": 6455,
      "ĠÄĳá»": 6456,
      "86": 6457,
      "_i": 6458,
      "ĠLog": 6459,
      "ĉpublic": 6460,
      "pu": 6461,
      "à¸²à¸ģ": 6462,
      "Ġamb": 6463,
      "Ġprincipal": 6464,
      "><": 6465,
      "à¸¨": 6466,
      "rij": 6467,
      "æ®": 6468,
      "''": 6469,
      "Rec": 6470,
      "())Ċ": 6471,
      "Ġkom": 6472,
      "valid": 6473,
      "Ġexcept": 6474,
      "ĠPrem": 6475,
      "Ġenvironment": 6476,
      "cos": 6477,
      "Ã¼hr": 6478,
      "rik": 6479,
      "Ġunderstand": 6480,
      "ìŁģ": 6481,
      "esse": 6482,
      "Ġgoal": 6483,
      "{equation": 6484,
      "ĠWal": 6485,
      "ĠTest": 6486,
      "ĠLong": 6487,
      "ĠìĿ´ìĥģ": 6488,
      "ought": 6489,
      "pm": 6490,
      "ĠÐ¾Ð±": 6491,
      "Message": 6492,
      "è·¯": 6493,
      "open": 6494,
      "Log": 6495,
      "æĸ¯": 6496,
      "anced": 6497,
      "itter": 6498,
      "ĠWhat": 6499,
      "Ġterms": 6500,
      "ĠPet": 6501,
      "cons": 6502,
      "à¸±à¸ļ": 6503,
      "Ġ.Ċ": 6504,
      "Ġtoday": 6505,
      "Ġdesigned": 6506,
      ".to": 6507,
      "azine": 6508,
      "itÃł": 6509,
      "ĠMass": 6510,
      "blic": 6511,
      "ĠJahr": 6512,
      "riz": 6513,
      "ãĥĹ": 6514,
      "íķĺë©´": 6515,
      "yan": 6516,
      "IV": 6517,
      "Ġà¤¸à¤®": 6518,
      "ĠService": 6519,
      "ĠBas": 6520,
      "Ġexam": 6521,
      "gt": 6522,
      "76": 6523,
      ")]Ċ": 6524,
      "Ġconduct": 6525,
      "Ġvisit": 6526,
      "Ġdalam": 6527,
      "ription": 6528,
      "ãģ¤": 6529,
      "ãģ©": 6530,
      "$.": 6531,
      "åıĬ": 6532,
      "æ°´": 6533,
      "Ġhabit": 6534,
      "bur": 6535,
      "çł": 6536,
      "ĠëĦĪ": 6537,
      "plied": 6538,
      "ĠÐ¾ÑĤ": 6539,
      "à¸¶": 6540,
      "èº«": 6541,
      "Ġê´ĳ": 6542,
      "kar": 6543,
      "width": 6544,
      "<T": 6545,
      "ç±": 6546,
      "Ãłnh": 6547,
      "ĠEduc": 6548,
      "ulture": 6549,
      "Ġstage": 6550,
      "ĠLicense": 6551,
      "Ġsche": 6552,
      "onom": 6553,
      "Ġsimple": 6554,
      "ĠAth": 6555,
      "ÙĦÙĬ": 6556,
      "íķĺë©°": 6557,
      "Ġdisplay": 6558,
      "Ð¸Ð²": 6559,
      "Ä±m": 6560,
      "à¤¸à¥ĩ": 6561,
      "ĠTim": 6562,
      "ĠHistor": 6563,
      "çİĭ": 6564,
      "Ġinstit": 6565,
      "Ġbul": 6566,
      "Ġlocation": 6567,
      "Ġmother": 6568,
      "Ġachie": 6569,
      "ĠMartin": 6570,
      "Ġrather": 6571,
      "ĠCarol": 6572,
      "aven": 6573,
      "à¸²à¸¡": 6574,
      "Ġsy": 6575,
      "ova": 6576,
      "Ġbeg": 6577,
      "Att": 6578,
      "Ġamount": 6579,
      "ĠMur": 6580,
      "ells": 6581,
      "Ġhous": 6582,
      "Ġcontact": 6583,
      "Ġenough": 6584,
      "anya": 6585,
      "Ġgra": 6586,
      "Ã©rie": 6587,
      "uman": 6588,
      "ĠRos": 6589,
      "Ġê²ĥìĿ´ëĭ¤": 6590,
      "ĠCam": 6591,
      "ĠHenry": 6592,
      "ĠìĿ¼ë³¸": 6593,
      "amily": 6594,
      "Ġseu": 6595,
      "ç¦": 6596,
      "Ġbring": 6597,
      "è»Ĭ": 6598,
      ".G": 6599,
      "Ġrate": 6600,
      "Ġappeared": 6601,
      "ĠìĻĦ": 6602,
      "gress": 6603,
      "oring": 6604,
      "ĠìŀĲìĭł": 6605,
      "eren": 6606,
      "Reg": 6607,
      "ĠÑģÑĤ": 6608,
      "ĠRom": 6609,
      "Ġformat": 6610,
      "cm": 6611,
      "reich": 6612,
      "-Ċ": 6613,
      "iene": 6614,
      ".cl": 6615,
      "west": 6616,
      "ĠStar": 6617,
      "ĠdÃ©c": 6618,
      "ĠSecond": 6619,
      "Ġjava": 6620,
      "olar": 6621,
      "Ġdir": 6622,
      "-K": 6623,
      "ê¸°ìĹĲ": 6624,
      "Inter": 6625,
      "point": 6626,
      "âĢĿê³ł": 6627,
      "Ġë²ł": 6628,
      "ë¦¬ìķĦ": 6629,
      "aging": 6630,
      "Ġnormal": 6631,
      "ĠĠĠĠĠĠĠĠĠĠ": 6632,
      "ĠWestern": 6633,
      "Ġusually": 6634,
      "ê¸Ģ": 6635,
      "kin": 6636,
      "agen": 6637,
      "Ġhimself": 6638,
      "icon": 6639,
      "uffer": 6640,
      "Ġê²Ģ": 6641,
      "Ġmis": 6642,
      "sen": 6643,
      "roller": 6644,
      "aga": 6645,
      "Ġtid": 6646,
      "ĠLife": 6647,
      "Ġwrite": 6648,
      "fort": 6649,
      "æ¥Ń": 6650,
      "Ã«": 6651,
      "Ġimplement": 6652,
      "Ġdiffic": 6653,
      "Ġcin": 6654,
      "Ġmakes": 6655,
      "ĠÄ°": 6656,
      "Ġlearn": 6657,
      "Ġfiles": 6658,
      "Ġrank": 6659,
      ".log": 6660,
      "Ġcopy": 6661,
      "ingen": 6662,
      "72": 6663,
      "asket": 6664,
      "icago": 6665,
      "æŀľ": 6666,
      "Ġë²ķ": 6667,
      "Ġáħ±": 6668,
      "Ġë¬¸ìłľ": 6669,
      "Ġnovel": 6670,
      "zie": 6671,
      "Ġpurch": 6672,
      "Ġchanges": 6673,
      "éĤ£": 6674,
      "}^": 6675,
      "edd": 6676,
      "igation": 6677,
      "åĵģ": 6678,
      "Ġoc": 6679,
      "Ġalthough": 6680,
      "Ġìĸ´ëĸ": 6681,
      "lik": 6682,
      "Ġà¤ħà¤ª": 6683,
      "ĠAus": 6684,
      "ĠStr": 6685,
      "èĲ": 6686,
      "ìª½": 6687,
      "ê²¬": 6688,
      "ĠUs": 6689,
      "-cent": 6690,
      "ĠJah": 6691,
      "ego": 6692,
      "ournament": 6693,
      "Ġfounded": 6694,
      "à¹ĩà¸Ļ": 6695,
      "ĠMer": 6696,
      ".)": 6697,
      "Ġapproxim": 6698,
      "áº¥t": 6699,
      "Ġeast": 6700,
      "ãĤµ": 6701,
      "ìłĳ": 6702,
      "SE": 6703,
      "BA": 6704,
      "create": 6705,
      "ĠCanadian": 6706,
      "ë¦¬ë¥¼": 6707,
      "pet": 6708,
      "win": 6709,
      "ĠJapanese": 6710,
      "Ġimm": 6711,
      "áº¿n": 6712,
      "stein": 6713,
      "Ġcontext": 6714,
      "={": 6715,
      "ĠTexas": 6716,
      "éħ": 6717,
      "ĠRel": 6718,
      "åĤ": 6719,
      "ĠÐĲ": 6720,
      "igma": 6721,
      "adores": 6722,
      "Ġarchitect": 6723,
      "ìķł": 6724,
      "bal": 6725,
      "Ġsequ": 6726,
      "Ġepisode": 6727,
      "Ġitem": 6728,
      "ĠJan": 6729,
      "ĠÐ»": 6730,
      "ĠSun": 6731,
      "ìĤ´": 6732,
      "Ġnom": 6733,
      "íĿ¬": 6734,
      "ĠCath": 6735,
      "Ġartist": 6736,
      "ãĢĢ": 6737,
      "IR": 6738,
      "istan": 6739,
      "ĠGen": 6740,
      "Ġcivil": 6741,
      "Ġestim": 6742,
      "loat": 6743,
      "icient": 6744,
      "Ġperformed": 6745,
      "ì£ł": 6746,
      "ëŁ½": 6747,
      "Ġcompleted": 6748,
      "ĠISBN": 6749,
      "è°": 6750,
      "Ġont": 6751,
      "Ġinj": 6752,
      "Ð¾Ð»ÑĮ": 6753,
      "ãĤª": 6754,
      "ĠHill": 6755,
      "åı£": 6756,
      "ĠìĹĲìĦľ": 6757,
      "è¿ĩ": 6758,
      "Ġtravel": 6759,
      "Ġpaint": 6760,
      "à¤¾à¤µ": 6761,
      "place": 6762,
      "ì°½": 6763,
      "Ġformed": 6764,
      "ë³Ģ": 6765,
      "verse": 6766,
      "'re": 6767,
      "eln": 6768,
      "ĠVirgin": 6769,
      "ioni": 6770,
      "89": 6771,
      "Count": 6772,
      "Ġgradu": 6773,
      "Ã©ri": 6774,
      "ĠÙĨ": 6775,
      "íĬ¹": 6776,
      "Ġgave": 6777,
      "Ġissues": 6778,
      "ãģł": 6779,
      "Ġì¤Ģ": 6780,
      "Ġhigher": 6781,
      "ĪĴ": 6782,
      "è¼": 6783,
      "ĠëĬĲ": 6784,
      "Ġrights": 6785,
      "Ġcop": 6786,
      "Ä±nda": 6787,
      "ÐµÑģÐº": 6788,
      "Ġrelationship": 6789,
      "epend": 6790,
      "liament": 6791,
      "Ġcorrespond": 6792,
      "Ġroom": 6793,
      "ĠÐ¿ÑĢÐ¸": 6794,
      ".r": 6795,
      "ĠUr": 6796,
      "ê·¹": 6797,
      "ski": 6798,
      "ĠUb": 6799,
      "å®ī": 6800,
      "rier": 6801,
      "Ġthought": 6802,
      "Ġê±¸": 6803,
      "Ġdass": 6804,
      "Ġreason": 6805,
      "ĠëĴ¤": 6806,
      "hood": 6807,
      "Ġelected": 6808,
      "ners": 6809,
      "_data": 6810,
      "Trans": 6811,
      "Ġyet": 6812,
      "æĸ¼": 6813,
      "à¹ĥà¸Ļ": 6814,
      "Ġadditional": 6815,
      "ialog": 6816,
      "aks": 6817,
      "ĠíĨł": 6818,
      "ycle": 6819,
      "section": 6820,
      "Ġlabel": 6821,
      "OP": 6822,
      "ĠìľĦíķľ": 6823,
      "ĠFestival": 6824,
      "-N": 6825,
      "ĠcÃ¡c": 6826,
      "åįģ": 6827,
      "Ġì°¾": 6828,
      "wrap": 6829,
      "ç·ļ": 6830,
      "Ġcurrently": 6831,
      "ĠCr": 6832,
      "wick": 6833,
      "Ġíļ": 6834,
      "Ġrelated": 6835,
      "ĠBu": 6836,
      "ĠSpan": 6837,
      "Ġsolo": 6838,
      "Ġleading": 6839,
      "ĠMax": 6840,
      "Ġaltern": 6841,
      "Ġtransl": 6842,
      "ä½ĵ": 6843,
      "Ø§Ø¡": 6844,
      "inding": 6845,
      "Ġcampaign": 6846,
      "ĠLiber": 6847,
      "FC": 6848,
      "lier": 6849,
      "Ġlimit": 6850,
      "ìĿ´íĬ¸": 6851,
      "çĶ°": 6852,
      "ustr": 6853,
      "astic": 6854,
      "ĠíĻĺ": 6855,
      "ĠMas": 6856,
      "ĠBet": 6857,
      "ellen": 6858,
      "é§": 6859,
      "arrow": 6860,
      "ĠÃº": 6861,
      "Ġalmost": 6862,
      "uw": 6863,
      "ëķĮ": 6864,
      "Ġfollowed": 6865,
      "ĠLuc": 6866,
      "Øº": 6867,
      "Ġíĥľ": 6868,
      "aland": 6869,
      "à¤ı": 6870,
      "Ġoverride": 6871,
      "ĠLake": 6872,
      "std": 6873,
      "Ġthroughout": 6874,
      "chi": 6875,
      "ighe": 6876,
      "ĠìĻĢ": 6877,
      "ĠìĦľìļ¸": 6878,
      "Ġcomplete": 6879,
      "Ġhá»į": 6880,
      "ĠAcademy": 6881,
      "Ġreading": 6882,
      "Ġcomment": 6883,
      "Ġ:Ċ": 6884,
      "à¸²à¸¢": 6885,
      "ÙĪØ±": 6886,
      "ĠìĭĿ": 6887,
      "Ġfavor": 6888,
      "Ġze": 6889,
      "Ġtod": 6890,
      "178": 6891,
      "aan": 6892,
      "å¢": 6893,
      "éĽ»": 6894,
      "ë°±": 6895,
      "Ġtal": 6896,
      "ĠAnn": 6897,
      "Ġeinen": 6898,
      "ality": 6899,
      "ĠGra": 6900,
      "apa": 6901,
      "ancial": 6902,
      "Ġcollection": 6903,
      "hem": 6904,
      "ĠGall": 6905,
      "ĠGer": 6906,
      "Ġsongs": 6907,
      "Ġìĭľê°Ħ": 6908,
      "ãĥ¡": 6909,
      "Ġpet": 6910,
      "EX": 6911,
      "Ġforce": 6912,
      "Ġupon": 6913,
      "ĠÎ": 6914,
      "Ġcut": 6915,
      "iente": 6916,
      "-W": 6917,
      "ĠBig": 6918,
      "\").": 6919,
      "Ġíķĺê³ł": 6920,
      "ĠIntern": 6921,
      "Ġconcern": 6922,
      "Ġoccur": 6923,
      "code": 6924,
      "Ã±a": 6925,
      "Ġbur": 6926,
      "ĠAfrica": 6927,
      "pp": 6928,
      "Ġactive": 6929,
      "Ġbah": 6930,
      "Ġá»": 6931,
      "abled": 6932,
      "aches": 6933,
      "ãĥī": 6934,
      "ĠFound": 6935,
      "cia": 6936,
      "ĠKingdom": 6937,
      "ãģĪ": 6938,
      "Ġtaking": 6939,
      "gal": 6940,
      "Ġcontinue": 6941,
      "à¥įà¤®": 6942,
      "ê²¨": 6943,
      "Ġbal": 6944,
      "Ġquant": 6945,
      "Ġappointed": 6946,
      "object": 6947,
      "Ãªncia": 6948,
      "Ð¾Ð·": 6949,
      "Ġminutes": 6950,
      "ĠKore": 6951,
      "eden": 6952,
      "Ġìĸ¸": 6953,
      "ĠKon": 6954,
      "ĠHon": 6955,
      "Response": 6956,
      "ĠìĤ¼": 6957,
      "ocks": 6958,
      "Ġregard": 6959,
      "ogen": 6960,
      "Comm": 6961,
      "Ġsn": 6962,
      "Ġë§ĲíĸĪëĭ¤": 6963,
      "ĠÑį": 6964,
      "fit": 6965,
      "ĠIsra": 6966,
      "heim": 6967,
      "pty": 6968,
      "ĠMem": 6969,
      "las": 6970,
      "ÅŁt": 6971,
      "Ġunit": 6972,
      "ĠØ¹ÙĦÙī": 6973,
      "Ġship": 6974,
      "oys": 6975,
      "Ġmu": 6976,
      "Ġquick": 6977,
      "æĥ³": 6978,
      "è«": 6979,
      "iar": 6980,
      "ugar": 6981,
      "Ġlines": 6982,
      "Ġparts": 6983,
      "ĠíķĦìļĶ": 6984,
      "æ©Ł": 6985,
      "see": 6986,
      "MS": 6987,
      "ifier": 6988,
      "ĠSeries": 6989,
      "ingu": 6990,
      "ĠI'm": 6991,
      "ĠNam": 6992,
      "vention": 6993,
      "Ġnature": 6994,
      "Ã¼nd": 6995,
      "æĥħ": 6996,
      "bra": 6997,
      "level": 6998,
      "Ġhit": 6999,
      "Ġë¸Į": 7000,
      "ãĥĲ": 7001,
      "Ġdeux": 7002,
      "Ġdaughter": 7003,
      "Ġ);Ċ": 7004,
      "å»º": 7005,
      "ãĤ¦": 7006,
      "iginal": 7007,
      "Ġì·¨": 7008,
      "isa": 7009,
      "Ġ;Ċ": 7010,
      "soft": 7011,
      "íķ©ëĭĪëĭ¤": 7012,
      "Ġgre": 7013,
      "How": 7014,
      "åĪ¶": 7015,
      "æĿĳ": 7016,
      "Ġfinished": 7017,
      "Ã¤ng": 7018,
      "impl": 7019,
      "Ġexpected": 7020,
      "Ġeffort": 7021,
      "alu": 7022,
      "ĠìŀĪìĬµëĭĪëĭ¤": 7023,
      "],Ċ": 7024,
      "Ġsaw": 7025,
      "ÐµÐ½Ð¸Ñı": 7026,
      "Am": 7027,
      "Ġesp": 7028,
      "ì§¸": 7029,
      "ĠMain": 7030,
      "ĠestÃ¡": 7031,
      "ĠĠĠĠĠĠĠĠĠĠĠĠ": 7032,
      "ìľ¨": 7033,
      "rupt": 7034,
      "format": 7035,
      "åħĥ": 7036,
      "Ġproblems": 7037,
      "package": 7038,
      "())": 7039,
      "ĠJew": 7040,
      "ĠOver": 7041,
      "à¥¤Ċ": 7042,
      "ĠìĬ¹": 7043,
      "ĠJac": 7044,
      "aire": 7045,
      "ottom": 7046,
      "ì²ł": 7047,
      "Ġmultiple": 7048,
      "Element": 7049,
      "Ġprior": 7050,
      "ĠWomen": 7051,
      "sm": 7052,
      "ĠSy": 7053,
      "ìŀĲëĬĶ": 7054,
      "Ġshown": 7055,
      "Ġinn": 7056,
      "_r": 7057,
      "ĠChicago": 7058,
      "Ġleague": 7059,
      "onia": 7060,
      "Ġpun": 7061,
      "anning": 7062,
      "Ġë³µ": 7063,
      "oli": 7064,
      "_N": 7065,
      "ML": 7066,
      "à¹Īà¸ĩ": 7067,
      "ĠDev": 7068,
      "}_": 7069,
      "Ġì§Ħíĸī": 7070,
      "ä»»": 7071,
      "astern": 7072,
      "[\"": 7073,
      "Ġwhether": 7074,
      "han": 7075,
      "acht": 7076,
      "Ġë¶ģ": 7077,
      "df": 7078,
      "à¥įà¤¥": 7079,
      "Ġextra": 7080,
      "Ġactually": 7081,
      "Ġapplic": 7082,
      "Ġextern": 7083,
      "ework": 7084,
      "inger": 7085,
      "When": 7086,
      "lu": 7087,
      "ĠìĪľ": 7088,
      "ĠMos": 7089,
      "Ġë§İìĿĢ": 7090,
      "ĠGro": 7091,
      "Ġproducts": 7092,
      "ÅĤa": 7093,
      "ĠRussian": 7094,
      "Ġpack": 7095,
      "ĠëĮĢíĳľ": 7096,
      "ĠChinese": 7097,
      "Ġaccording": 7098,
      "road": 7099,
      "ĠAN": 7100,
      "ĠÑĦ": 7101,
      "Ġsort": 7102,
      "ë¶Ī": 7103,
      "à¥ģà¤°": 7104,
      "well": 7105,
      "uke": 7106,
      "Ġhours": 7107,
      "Ä±nÄ±": 7108,
      "Ġwhy": 7109,
      "Ġpaper": 7110,
      "ĠSu": 7111,
      "ĠFootball": 7112,
      "_type": 7113,
      ".x": 7114,
      "Ġë²Ħ": 7115,
      "Ġbank": 7116,
      "ĠAfrican": 7117,
      "Ġidea": 7118,
      "ĠSou": 7119,
      "Ġcat": 7120,
      "ĠFort": 7121,
      "62": 7122,
      "Ġ});Ċ": 7123,
      "åı¯ä»¥": 7124,
      "light": 7125,
      "Ġinvolved": 7126,
      "Ġwriter": 7127,
      "rica": 7128,
      "à¸Ķà¹ī": 7129,
      "æį": 7130,
      "-based": 7131,
      "160": 7132,
      "Ġdei": 7133,
      "Ġcourt": 7134,
      "Ġlargest": 7135,
      "Ġzw": 7136,
      "yg": 7137,
      "Ġalle": 7138,
      "ì¸µ": 7139,
      "ĠDate": 7140,
      "lying": 7141,
      "Ġáħ£": 7142,
      "Ġë§İìĿ´": 7143,
      "PI": 7144,
      "ython": 7145,
      "ìĤ¬ë¥¼": 7146,
      "ì§Ģê³ł": 7147,
      "\"|": 7148,
      "ECT": 7149,
      "oca": 7150,
      "ĠWindows": 7151,
      "Ġtransport": 7152,
      "Ġconditions": 7153,
      "Ġq": 7154,
      "Ġta": 7155,
      "ĠSet": 7156,
      "Ġerr": 7157,
      "Ġì¶©": 7158,
      "250": 7159,
      "ĠSar": 7160,
      "image": 7161,
      "Ùĭ": 7162,
      "izing": 7163,
      "Ġcontains": 7164,
      "ircraft": 7165,
      "Ġben": 7166,
      "Ġcolumn": 7167,
      "Color": 7168,
      "Ġgold": 7169,
      "ĠWhile": 7170,
      "Ġcompanies": 7171,
      "Ġek": 7172,
      "ĠTro": 7173,
      "Ġschools": 7174,
      "ĠCare": 7175,
      "æ¸¯": 7176,
      "ê°Ŀ": 7177,
      "ĠAtt": 7178,
      "embly": 7179,
      "Ġê³³": 7180,
      "Ġfall": 7181,
      "ê³¡": 7182,
      "Ġbooks": 7183,
      "Ġë´": 7184,
      "Ġuit": 7185,
      "Ġapplication": 7186,
      "lood": 7187,
      "stall": 7188,
      "Ġupdate": 7189,
      "igo": 7190,
      "ĠBerlin": 7191,
      "Ġarm": 7192,
      "True": 7193,
      "Ġsays": 7194,
      "ìĪľ": 7195,
      "Ġhttp": 7196,
      "Ġindustry": 7197,
      "ĠHome": 7198,
      "Ġselect": 7199,
      "Ġjournal": 7200,
      "Ġoutside": 7201,
      "ë¸Ķ": 7202,
      "}.": 7203,
      "Ä±l": 7204,
      "irk": 7205,
      "ĠëĤł": 7206,
      "Ð¾Ð¶": 7207,
      "rak": 7208,
      "mathcal": 7209,
      "enne": 7210,
      "ë§ī": 7211,
      "Ġì±Ħ": 7212,
      "ĠGames": 7213,
      "Ġdell": 7214,
      "_F": 7215,
      "RA": 7216,
      "Ġpercent": 7217,
      "Ġneigh": 7218,
      "åı°": 7219,
      "ç¥ŀ": 7220,
      "ĠBern": 7221,
      "esso": 7222,
      "oor": 7223,
      "rum": 7224,
      "à¥ĭà¤Ĺ": 7225,
      "lib": 7226,
      "Ġprz": 7227,
      "ĠRem": 7228,
      "ĠHand": 7229,
      "Ġdifficult": 7230,
      "azz": 7231,
      "ê¹Ģ": 7232,
      "ĠìĦ¸ê³Ħ": 7233,
      "~\\": 7234,
      "Ġ__": 7235,
      "ëł¸": 7236,
      "Ġëĭ¤ìĿĮ": 7237,
      ".con": 7238,
      "acters": 7239,
      "800": 7240,
      ".util": 7241,
      "duce": 7242,
      "input": 7243,
      "van": 7244,
      "idents": 7245,
      "ranch": 7246,
      "éľ": 7247,
      ".re": 7248,
      "osta": 7249,
      "ìŀ¥ìĿĢ": 7250,
      "éģİ": 7251,
      "çı¾": 7252,
      "ĠÃĸ": 7253,
      "Ġcountries": 7254,
      "å²": 7255,
      "-pro": 7256,
      "Ð½ÑĭÑħ": 7257,
      "agon": 7258,
      "esi": 7259,
      "ĠJoseph": 7260,
      "600": 7261,
      ".\"Ċ": 7262,
      "ĠLine": 7263,
      "Ġculture": 7264,
      "aa": 7265,
      "ÅĽci": 7266,
      "ì¡´": 7267,
      "ĠtambÃ©m": 7268,
      "Ġìķ¼": 7269,
      "à¸µà¸¢": 7270,
      "Ġcomme": 7271,
      "Lo": 7272,
      "arily": 7273,
      "ĠBrown": 7274,
      "idas": 7275,
      "Ġitself": 7276,
      "ĠItalian": 7277,
      "åĦ": 7278,
      "arden": 7279,
      "63": 7280,
      "ĠPolit": 7281,
      "ìĹ´": 7282,
      "ìµľ": 7283,
      "oid": 7284,
      "ë¡Ģ": 7285,
      "-n": 7286,
      "à¤¹à¥Ģà¤Ĥ": 7287,
      "igan": 7288,
      "Ġgar": 7289,
      "aman": 7290,
      "room": 7291,
      "ĠGame": 7292,
      "#[": 7293,
      "ĠSong": 7294,
      "hab": 7295,
      "ilities": 7296,
      "Ġfort": 7297,
      "Ġselected": 7298,
      "Ġgrup": 7299,
      "Ġì¤Ħ": 7300,
      "ĠÐ¸Ð·": 7301,
      "ql": 7302,
      "ĠOld": 7303,
      "-J": 7304,
      ".append": 7305,
      "ĠBal": 7306,
      "ledge": 7307,
      "'d": 7308,
      "ĠNa": 7309,
      "Ġnos": 7310,
      "Ġbehind": 7311,
      "Ġarticle": 7312,
      "ĠMit": 7313,
      "Sub": 7314,
      "æ·": 7315,
      "ĠpÃ¥": 7316,
      "ĠOf": 7317,
      "71": 7318,
      "Date": 7319,
      "åıĳ": 7320,
      "aled": 7321,
      "Ġcapac": 7322,
      "ĠUbuntu": 7323,
      "Ġforces": 7324,
      "61": 7325,
      "Ġdefin": 7326,
      "ieder": 7327,
      "_list": 7328,
      "orf": 7329,
      "Ġinsp": 7330,
      "ãģ¦ãģĦãĤĭ": 7331,
      "à¤¨à¥Ģ": 7332,
      "HE": 7333,
      "ĠScience": 7334,
      "unda": 7335,
      "Ġoptions": 7336,
      "ĠíĬ¸": 7337,
      "Ġseven": 7338,
      "èĳ": 7339,
      "à¸ĸ": 7340,
      "path": 7341,
      "ĠPri": 7342,
      "Ġnombre": 7343,
      "One": 7344,
      "ĠDas": 7345,
      "anged": 7346,
      "Ġnews": 7347,
      "ä¿¡": 7348,
      "ĠFC": 7349,
      "Ġì°½": 7350,
      "~Ċ": 7351,
      "iti": 7352,
      "Ġtypes": 7353,
      "Ġsist": 7354,
      "eks": 7355,
      "oire": 7356,
      "Ġìĭ¶": 7357,
      "ĠBand": 7358,
      "Ġpolice": 7359,
      "Ġcases": 7360,
      "wan": 7361,
      "Box": 7362,
      "ê·ľ": 7363,
      "Ġespecially": 7364,
      "ipe": 7365,
      "Ġì¹ľ": 7366,
      "pret": 7367,
      "å¸¸": 7368,
      "-de": 7369,
      "reland": 7370,
      "Ġestablish": 7371,
      "actory": 7372,
      "Dis": 7373,
      "Ġchanged": 7374,
      "85": 7375,
      "Ġshare": 7376,
      "à¹Ģà¸Ľà¹ĩà¸Ļ": 7377,
      "Ġpark": 7378,
      "177": 7379,
      "aily": 7380,
      "Ġauto": 7381,
      "Ä±k": 7382,
      "Input": 7383,
      "Ġnumbers": 7384,
      "à¤«": 7385,
      "Ð½Ð¾Ð¹": 7386,
      "amin": 7387,
      "Group": 7388,
      "SP": 7389,
      "Ġcontr": 7390,
      "ĠLi": 7391,
      "uda": 7392,
      "Ġdirected": 7393,
      "Ġactual": 7394,
      "ãħĭãħĭãħĭãħĭ": 7395,
      "*Ċ": 7396,
      "æŃ¤": 7397,
      "Ġê²ĥìĿĢ": 7398,
      "hl": 7399,
      "ega": 7400,
      "Ġê²ĥìĿĦ": 7401,
      "à¥įà¤²": 7402,
      "ilen": 7403,
      "Ġrealiz": 7404,
      "Ġmein": 7405,
      "ìĺ¬": 7406,
      "ampion": 7407,
      "lia": 7408,
      "Ø§Ø¦": 7409,
      "Ãī": 7410,
      "æĵ": 7411,
      "ĠtambiÃ©n": 7412,
      "owie": 7413,
      "ĠíķŃ": 7414,
      "ragment": 7415,
      "ìĦ¸ìļĶ": 7416,
      "Off": 7417,
      "Ġë°Ŀíĺ": 7418,
      "orpor": 7419,
      "Ġsolution": 7420,
      "ĠDar": 7421,
      "ocratic": 7422,
      "hing": 7423,
      "èĦ": 7424,
      "owe": 7425,
      "Ġoccup": 7426,
      "ç³»": 7427,
      "ãĥĩ": 7428,
      "ĠRh": 7429,
      "Ġball": 7430,
      "ĠJim": 7431,
      "ĠiÃ§": 7432,
      "Ġê´Ģëł¨": 7433,
      "Ð¸Ð·": 7434,
      "à¤¿à¤Ĥ": 7435,
      "ëĵĿ": 7436,
      "Ġcalcul": 7437,
      "esta": 7438,
      "ĠMore": 7439,
      "ĠØ£ÙĨ": 7440,
      "NA": 7441,
      "Ġprepar": 7442,
      "æ¯Ķ": 7443,
      "irtual": 7444,
      "çĤ¹": 7445,
      "ĠTwo": 7446,
      "Ġmanagement": 7447,
      "ìĿ´ëĬĶ": 7448,
      "(),Ċ": 7449,
      "ìŀ¥ìĿĦ": 7450,
      "itting": 7451,
      "Ġglobal": 7452,
      "Ġsoon": 7453,
      "æħ": 7454,
      "yes": 7455,
      "ĠFil": 7456,
      "è±": 7457,
      "can": 7458,
      "åĥ": 7459,
      "Ġdegree": 7460,
      "Ġìĺ¨": 7461,
      "ĠPortug": 7462,
      "Param": 7463,
      "ĠBank": 7464,
      "Ġassociated": 7465,
      "Ġdrop": 7466,
      "itory": 7467,
      "ĠNews": 7468,
      "Ġlooking": 7469,
      "Ġconcept": 7470,
      "asil": 7471,
      "åĲĳ": 7472,
      "Ġdurante": 7473,
      "/m": 7474,
      "}čĊ": 7475,
      "Ġvert": 7476,
      "ĠWood": 7477,
      "igt": 7478,
      "ĠAngeles": 7479,
      "Ġforma": 7480,
      "oral": 7481,
      ".Get": 7482,
      "Ġpick": 7483,
      "ãħł": 7484,
      "ìĭľìķĦ": 7485,
      "Ġcomputer": 7486,
      "ĠìĹħ": 7487,
      "ĠBob": 7488,
      "oz": 7489,
      "-to": 7490,
      "74": 7491,
      "IA": 7492,
      "ĠSpe": 7493,
      "Ġsomet": 7494,
      "ĠJer": 7495,
      "á»±": 7496,
      "Ġuses": 7497,
      "à¥įà¤¸": 7498,
      "joy": 7499,
      ".id": 7500,
      "Ġdiff": 7501,
      "ishop": 7502,
      "ĠBra": 7503,
      "Ġnode": 7504,
      "Ġstaff": 7505,
      "ê¸°ê°Ģ": 7506,
      "ãĤŃ": 7507,
      "Ġtor": 7508,
      "-V": 7509,
      "Ġstrateg": 7510,
      "Ġà¤¯à¤¹": 7511,
      "'une": 7512,
      "Ġquality": 7513,
      "Ġmill": 7514,
      "Ġeight": 7515,
      "Ġwhole": 7516,
      "Ġìľ¼ë¡ľ": 7517,
      "ãĤı": 7518,
      "ensity": 7519,
      "(S": 7520,
      ",âĢĿ": 7521,
      "73": 7522,
      "ĠÃ©tÃ©": 7523,
      "Ġíģ°": 7524,
      "Ġstore": 7525,
      "ĠLee": 7526,
      "Ġthing": 7527,
      "Ø§Ø¹": 7528,
      "uses": 7529,
      "cu": 7530,
      "iri": 7531,
      "angan": 7532,
      "owers": 7533,
      "uten": 7534,
      "ãĢİ": 7535,
      "Ġwel": 7536,
      "Ġfight": 7537,
      "Ġload": 7538,
      "ului": 7539,
      "ĠPac": 7540,
      "Ġneeds": 7541,
      "ufact": 7542,
      "åĵ¡": 7543,
      "ĠYour": 7544,
      "à¹īà¸Ļ": 7545,
      "íĮħ": 7546,
      "ÄŁÄ±": 7547,
      "_L": 7548,
      "Ġpued": 7549,
      "Ġbuy": 7550,
      "Ġmention": 7551,
      "Ġroot": 7552,
      "ĠÐ±Ñĭ": 7553,
      "ĠTod": 7554,
      "ìĭľê°Ħ": 7555,
      "Ġìķł": 7556,
      "Ġê·¼": 7557,
      "ĠLet": 7558,
      "venue": 7559,
      "Ġcant": 7560,
      "Ur": 7561,
      "Ġà¤°à¤¹": 7562,
      "Ġsud": 7563,
      "ĠSocial": 7564,
      "ĠTw": 7565,
      "Ġà¤ķà¤¿à¤¯à¤¾": 7566,
      "Ġvalid": 7567,
      "Ġmur": 7568,
      "ì£¼ìĿĺ": 7569,
      "eline": 7570,
      "ĠView": 7571,
      "ĠÐ½Ðµ": 7572,
      "di": 7573,
      "Ġveh": 7574,
      "Ã¶l": 7575,
      "ĠÐµ": 7576,
      "Ġbij": 7577,
      "Ġfail": 7578,
      "eur": 7579,
      "rought": 7580,
      "Ġtakes": 7581,
      "bin": 7582,
      "ĠìłķëıĦ": 7583,
      "ìľĦìĽĲ": 7584,
      "åıĸ": 7585,
      "íį¼": 7586,
      "Ġsurface": 7587,
      "ĠZealand": 7588,
      "Ġprimary": 7589,
      "Ġbed": 7590,
      "ĠName": 7591,
      "Ġapproach": 7592,
      "Image": 7593,
      "Ġwhose": 7594,
      "anded": 7595,
      "aja": 7596,
      "Ġ(*": 7597,
      "áº¿t": 7598,
      "ned": 7599,
      "Ġmaintain": 7600,
      "Ġcollege": 7601,
      "ening": 7602,
      "Ġcorrect": 7603,
      "Ġnur": 7604,
      "vest": 7605,
      "Ġëª¨ëĳĲ": 7606,
      "ìĦ¼": 7607,
      "à¹ģà¸¥à¸°": 7608,
      "Ġê·ľ": 7609,
      "ĠëĮĢíķ´": 7610,
      "Ġstudent": 7611,
      "ãĥ£": 7612,
      "Ġ**": 7613,
      "Ġwords": 7614,
      "ĠSanta": 7615,
      "aat": 7616,
      "_v": 7617,
      "Ġclient": 7618,
      "uid": 7619,
      "oub": 7620,
      "ĠĠĠĠĠĠĠĠĠĠĠĠĠĠĠĠĠĠĠĠĠĠĠĠĠĠĠĠĠĠĠ": 7621,
      "Ġbrother": 7622,
      "Ġanswer": 7623,
      "Ġnp": 7624,
      "Ġëĭ´": 7625,
      "Ġtip": 7626,
      "phi": 7627,
      "imb": 7628,
      "âĢĻre": 7629,
      "Ġcannot": 7630,
      "Ġdecided": 7631,
      "Ġkilled": 7632,
      "Ġcomes": 7633,
      "Ġroute": 7634,
      "æ¡": 7635,
      "Ġdevice": 7636,
      "Ġcit": 7637,
      "overs": 7638,
      "íķ´ìķ¼": 7639,
      "Ġì§ĢìĽĲ": 7640,
      "ĠCommission": 7641,
      "ĠFree": 7642,
      "Ġfast": 7643,
      "èı": 7644,
      "çľĭ": 7645,
      "ishing": 7646,
      "ĠJoh": 7647,
      "ĠIll": 7648,
      "Ġdeliver": 7649,
      "What": 7650,
      "Property": 7651,
      "èĹ": 7652,
      "py": 7653,
      "args": 7654,
      "uccess": 7655,
      "ĠLin": 7656,
      "doc": 7657,
      "ÐµÐ½Ð¸Ðµ": 7658,
      "Ġinstance": 7659,
      "Ġpriv": 7660,
      "Ġmal": 7661,
      "ìĹĶ": 7662,
      "Ġcompl": 7663,
      "ĠMost": 7664,
      "Pos": 7665,
      "Ġstay": 7666,
      "Ġmanager": 7667,
      "ãĥ¥": 7668,
      "irit": 7669,
      "Ġoriginally": 7670,
      "Ġà¤Ł": 7671,
      "Ġmanufact": 7672,
      "ĠForce": 7673,
      "ĠëĦ¤": 7674,
      "Ġconvert": 7675,
      "ÐºÐ°": 7676,
      "ĠìĿ´ìļ©": 7677,
      "iye": 7678,
      "ë²Ķ": 7679,
      "ĠëĲľëĭ¤": 7680,
      "time": 7681,
      "æİ¥": 7682,
      "Ġnas": 7683,
      "Ġtransform": 7684,
      "Hist": 7685,
      "æ²»": 7686,
      "ë°Ľ": 7687,
      "Ġincrease": 7688,
      "Ġdistribution": 7689,
      "/c": 7690,
      "ĠResearch": 7691,
      "orith": 7692,
      "Ġprovides": 7693,
      "Ġ(!": 7694,
      "content": 7695,
      "à¤¯à¤¾": 7696,
      "Ġax": 7697,
      "ëŀ¨": 7698,
      "encies": 7699,
      "Us": 7700,
      "Te": 7701,
      "_B": 7702,
      "ĠNord": 7703,
      "Ġallowed": 7704,
      "íĨµëł¹": 7705,
      "ãĤ¨": 7706,
      "..Ċ": 7707,
      "ĠSir": 7708,
      "Ġadapt": 7709,
      "(new": 7710,
      "ä½¢": 7711,
      "Ġtalk": 7712,
      "à¸·à¸Ń": 7713,
      "ä»¶": 7714,
      "'est": 7715,
      "mathbf": 7716,
      "ìĿ´ê³ł": 7717,
      "thumb": 7718,
      "åħĪ": 7719,
      "rot": 7720,
      "Ġdomin": 7721,
      "ĠSpanish": 7722,
      "ĠëĪĦ": 7723,
      "Ġreach": 7724,
      "ì¹¨": 7725,
      "hand": 7726,
      "Ġanti": 7727,
      "Ġscore": 7728,
      "iform": 7729,
      "-\\": 7730,
      "ught": 7731,
      "reme": 7732,
      "Ġadalah": 7733,
      "Ġvez": 7734,
      "ĠAnton": 7735,
      "ĠØ¬": 7736,
      "é¦Ļ": 7737,
      "ì§Ģë¥¼": 7738,
      "Ġkm": 7739,
      "argo": 7740,
      "Ġscient": 7741,
      "ubuntu": 7742,
      "ãģªãģĦ": 7743,
      "Ð½Ð°": 7744,
      "çľŁ": 7745,
      "asy": 7746,
      "iat": 7747,
      "ĠRod": 7748,
      "ĠëĦĺ": 7749,
      "ĠSov": 7750,
      "Ġanalysis": 7751,
      "ĠBase": 7752,
      "Ġlonger": 7753,
      "-century": 7754,
      "nis": 7755,
      "unwrap": 7756,
      "MA": 7757,
      "ĠBack": 7758,
      "Ġà¤¸à¤¾à¤": 7759,
      "Ġnam": 7760,
      "ĠÃ¤r": 7761,
      "à¤¤à¥įà¤°": 7762,
      "adr": 7763,
      "Ġreplaced": 7764,
      "å°ĳ": 7765,
      "(R": 7766,
      "Ġsubsequ": 7767,
      "Ġunits": 7768,
      "Ġdownload": 7769,
      "Ġmusical": 7770,
      "å¤ª": 7771,
      "}^{": 7772,
      "Ã¬nh": 7773,
      "Ġclosed": 7774,
      "pass": 7775,
      "Ġcommercial": 7776,
      "Ġdoing": 7777,
      "Ð¾Ð¿": 7778,
      "Ġinstr": 7779,
      "afe": 7780,
      "Ġcontain": 7781,
      "Ġrad": 7782,
      "Ġpict": 7783,
      "ĠVan": 7784,
      "Ð°Ð»ÑĮ": 7785,
      "áº¯": 7786,
      "Ġpain": 7787,
      "iser": 7788,
      "idget": 7789,
      "Ġ/**Ċ": 7790,
      "larÄ±": 7791,
      "Ġeventually": 7792,
      "ĠRam": 7793,
      "Ġtut": 7794,
      "Ð½ÑĭÐ¹": 7795,
      "ì¿ł": 7796,
      "Ġneeded": 7797,
      "Ġtrain": 7798,
      "ìŀĲê°Ģ": 7799,
      "version": 7800,
      "Ġcart": 7801,
      "ĠMah": 7802,
      "check": 7803,
      "ether": 7804,
      "ĠOrder": 7805,
      "ãĥĭ": 7806,
      "Ġtheory": 7807,
      "Ġoperations": 7808,
      "elves": 7809,
      "alar": 7810,
      "js": 7811,
      "ĠArts": 7812,
      "ĠÐ¿Ð¾": 7813,
      ".sh": 7814,
      "schaft": 7815,
      "Opt": 7816,
      "ĠEducation": 7817,
      "Ġìļ©": 7818,
      "Ġliber": 7819,
      "Ġintroduced": 7820,
      "Ġplatform": 7821,
      "Ġlisted": 7822,
      "åĮº": 7823,
      "Ġmind": 7824,
      "Ġult": 7825,
      "vement": 7826,
      "Ġë§ģ": 7827,
      "Ġê´Ģê³Ħ": 7828,
      "á»¯": 7829,
      "à¤ĸ": 7830,
      "uster": 7831,
      "names": 7832,
      "ĠOh": 7833,
      "Ġcritic": 7834,
      "elles": 7835,
      "ĠëĮĢíķľë¯¼": 7836,
      ")(": 7837,
      "asketball": 7838,
      "ĠUSA": 7839,
      "icrosoft": 7840,
      "Ġexc": 7841,
      "æ¢": 7842,
      "Ġcause": 7843,
      "175": 7844,
      "active": 7845,
      "ĠBul": 7846,
      "Ġjed": 7847,
      "ĠPenn": 7848,
      "Ġrep": 7849,
      "Ġpil": 7850,
      "illing": 7851,
      "ĠìĤ¬ìĹħ": 7852,
      "æĮĩ": 7853,
      "Ð¾Ð´Ð°": 7854,
      "Ġcompr": 7855,
      "Ġcompetition": 7856,
      "uls": 7857,
      "Ġdise": 7858,
      "Ġblog": 7859,
      "Per": 7860,
      "à¥ĥ": 7861,
      "xy": 7862,
      "ĠMaria": 7863,
      "ptr": 7864,
      "å£«": 7865,
      "Ġruns": 7866,
      "inos": 7867,
      "Char": 7868,
      "ĠRen": 7869,
      "Ġìłķë¶Ģ": 7870,
      "Ġemer": 7871,
      "ãģ§ãģ¯": 7872,
      "åıª": 7873,
      "apat": 7874,
      "ĠFrancisco": 7875,
      "ãģ£ãģ¦": 7876,
      "else": 7877,
      "inden": 7878,
      "bi": 7879,
      "à¥įà¤ķ": 7880,
      "ĠShow": 7881,
      "Ġhij": 7882,
      "è§£": 7883,
      "rypt": 7884,
      "aran": 7885,
      "Ġdecision": 7886,
      "Ġsecret": 7887,
      "æ²¡": 7888,
      "ĠëĦĪë¬´": 7889,
      "CE": 7890,
      "84": 7891,
      "ĠRadio": 7892,
      "Ġprice": 7893,
      "èĩ³": 7894,
      "ëŁ¬ëĤĺ": 7895,
      "æĶ¾": 7896,
      "ĠTre": 7897,
      "Ġgel": 7898,
      "ĠKl": 7899,
      "Ġlui": 7900,
      "},Ċ": 7901,
      "ëŀľëĵľ": 7902,
      "Ġbackground": 7903,
      "PL": 7904,
      "Ġpotential": 7905,
      "ĠíĶĮ": 7906,
      "ĠCongress": 7907,
      "Ġfeatured": 7908,
      "Ġast": 7909,
      "áº£o": 7910,
      "Ġlikely": 7911,
      "_\\": 7912,
      "ĠFar": 7913,
      "Ġjug": 7914,
      "Ġnomin": 7915,
      "leep": 7916,
      "arning": 7917,
      "Ġorigin": 7918,
      "Dec": 7919,
      "110": 7920,
      "Ġcharacters": 7921,
      "Ġcelebr": 7922,
      "TS": 7923,
      "rog": 7924,
      "ĠCatholic": 7925,
      "Ġpractice": 7926,
      "ĠSecret": 7927,
      "ìĿµ": 7928,
      "ê±°ëĤĺ": 7929,
      "nia": 7930,
      "ä¸Ģä¸ª": 7931,
      "Ġrecomm": 7932,
      "_size": 7933,
      "Che": 7934,
      "istas": 7935,
      "ĠIts": 7936,
      "ĠÐł": 7937,
      "Ġelements": 7938,
      "ìĿ´ëĿ¼ëĬĶ": 7939,
      ".âĢĿĊ": 7940,
      "Ġgoals": 7941,
      "ìľ¼ë©´": 7942,
      "Ġger": 7943,
      "Ass": 7944,
      "ëĬĲ": 7945,
      "Ġimpact": 7946,
      "Ġremained": 7947,
      "ighest": 7948,
      "ĠChampionships": 7949,
      "iders": 7950,
      "Client": 7951,
      "Ġcommunic": 7952,
      "utch": 7953,
      "ãħİãħİ": 7954,
      "ĠBor": 7955,
      "åŀ": 7956,
      "Ġadj": 7957,
      "å³": 7958,
      "Å¼e": 7959,
      ".data": 7960,
      "ridge": 7961,
      "CL": 7962,
      "ĨĴ": 7963,
      "ĠìĤ¬ìĿ´": 7964,
      "íĺĳ": 7965,
      "hemat": 7966,
      "ribe": 7967,
      "zt": 7968,
      "Ġexhib": 7969,
      "usion": 7970,
      "åı¸": 7971,
      "aden": 7972,
      "ĠYoung": 7973,
      "Line": 7974,
      "ĠGood": 7975,
      "Ġpela": 7976,
      "istance": 7977,
      "Ġwood": 7978,
      "Ġreached": 7979,
      "ì²ĺëŁ¼": 7980,
      "Ġpreviously": 7981,
      "Ġà¤¨à¤¹à¥Ģà¤Ĥ": 7982,
      "Ġtu": 7983,
      "Ã§o": 7984,
      "Ġplaced": 7985,
      "ä¿Ŀ": 7986,
      "Ġrecent": 7987,
      "ãģ¡": 7988,
      "Ġdirection": 7989,
      "åħ±": 7990,
      "ĠHealth": 7991,
      "ÙħØ§": 7992,
      "ĠHor": 7993,
      "Ã¤hr": 7994,
      "true": 7995,
      "ĠFlorida": 7996,
      "ĠPor": 7997,
      "ukan": 7998,
      "CD": 7999,
      "ä¹Ī": 8000,
      "Æ°á»Ŀi": 8001,
      "Ġmayor": 8002,
      "åŃĹ": 8003,
      "ĠElect": 8004,
      "ockey": 8005,
      "Æ°á»Ľ": 8006,
      "mathrm": 8007,
      "Å¡": 8008,
      ".pro": 8009,
      "Ġmale": 8010,
      "ĠServ": 8011,
      "Ġreve": 8012,
      "Ġgew": 8013,
      "ĠData": 8014,
      "Ġcolon": 8015,
      "ĠPoint": 8016,
      "rÃ©": 8017,
      "Ġniet": 8018,
      "So": 8019,
      "ëĦ¤ìļĶ": 8020,
      "ĠBon": 8021,
      "ĠIns": 8022,
      "{fig": 8023,
      "Ġpelo": 8024,
      "çĦ¡": 8025,
      "iams": 8026,
      "Ġheight": 8027,
      "aram": 8028,
      "fin": 8029,
      "avi": 8030,
      "ĠSem": 8031,
      "state": 8032,
      "Ġdefined": 8033,
      "åŁº": 8034,
      "ĠIreland": 8035,
      "icks": 8036,
      "rance": 8037,
      "ëĭĪê¹Į": 8038,
      "Ġdedic": 8039,
      "Ġì±ħ": 8040,
      "ĠEmp": 8041,
      "imin": 8042,
      "Ġpolitician": 8043,
      "ì¼Ģ": 8044,
      "à¸±à¸ĩ": 8045,
      "Status": 8046,
      "ĠAtlant": 8047,
      "101": 8048,
      "ìĽĢ": 8049,
      "Ġconserv": 8050,
      "ĠëĪĪ": 8051,
      "ĠMr": 8052,
      "çĻº": 8053,
      "Ġdetails": 8054,
      "ĠEngine": 8055,
      "çĽ´": 8056,
      "anti": 8057,
      "ê°Ļ": 8058,
      "ĠId": 8059,
      "inct": 8060,
      "Ġì²ľ": 8061,
      "Ġspeed": 8062,
      "ĠSand": 8063,
      "ĠVirginia": 8064,
      "Ġgetting": 8065,
      "ĠÙĦÙĦ": 8066,
      "Ġoption": 8067,
      "á»©": 8068,
      "Ġpremi": 8069,
      "ÑĢÐµÐ´": 8070,
      "Ġindependent": 8071,
      ".N": 8072,
      "razil": 8073,
      "åıĹ": 8074,
      "Ġregister": 8075,
      "Ge": 8076,
      "iker": 8077,
      "Ġ{\\": 8078,
      "Instance": 8079,
      "Ġscript": 8080,
      "Ġmeasure": 8081,
      "ĠêµŃê°Ģ": 8082,
      "ĠNow": 8083,
      "åıĪ": 8084,
      "ĠLu": 8085,
      "Ġëĭ¤ìĸĳ": 8086,
      "Ġpositive": 8087,
      "ardo": 8088,
      "Ġà¤¡": 8089,
      "ulated": 8090,
      "rics": 8091,
      "Ġactor": 8092,
      "Ġexact": 8093,
      "Ġì½": 8094,
      "ĠHaw": 8095,
      "ounds": 8096,
      "Ġëĭ¤ìĭľ": 8097,
      "agai": 8098,
      "ierre": 8099,
      "Ð³Ð¾": 8100,
      "isions": 8101,
      "Ð¡": 8102,
      "abs": 8103,
      "iem": 8104,
      "Ġcatch": 8105,
      "ĠHo": 8106,
      "Ġep": 8107,
      "ĠCro": 8108,
      "éĩı": 8109,
      "Ġdepend": 8110,
      "ĠEarly": 8111,
      "-time": 8112,
      "(l": 8113,
      "Ġíĺĳ": 8114,
      "-E": 8115,
      "ithub": 8116,
      "Ġkan": 8117,
      "Ġ$$": 8118,
      "xx": 8119,
      "inda": 8120,
      "Ġpap": 8121,
      "96": 8122,
      "82": 8123,
      "irls": 8124,
      "Car": 8125,
      "ocket": 8126,
      "è¨Ń": 8127,
      "ĠPa": 8128,
      "Ġstated": 8129,
      "å§ĭ": 8130,
      "Ġwurden": 8131,
      "Ġlegal": 8132,
      "aste": 8133,
      "Ġeditor": 8134,
      "ĠBund": 8135,
      "Ġstudio": 8136,
      "ĠáĨº": 8137,
      "170": 8138,
      "'in": 8139,
      "Ġaffect": 8140,
      "ë¹ĦìĬ¤": 8141,
      "ĠStand": 8142,
      "Ġesta": 8143,
      "Ġawarded": 8144,
      "gest": 8145,
      "alla": 8146,
      "kins": 8147,
      "ãĥĸ": 8148,
      "eff": 8149,
      "velopment": 8150,
      "default": 8151,
      "ÑĤÐ¾": 8152,
      "ĠJournal": 8153,
      "fs": 8154,
      "Ġsend": 8155,
      "Ġtowards": 8156,
      "ĠColor": 8157,
      "Ġdiscover": 8158,
      "Ġserver": 8159,
      "Ġìĵ°": 8160,
      "æıĲ": 8161,
      "inals": 8162,
      "Ġsometimes": 8163,
      "Ġdesde": 8164,
      "ì³Ĳ": 8165,
      "ĠEsp": 8166,
      "ãģ¿": 8167,
      "Ġorganization": 8168,
      "ĠâĢĵĊ": 8169,
      "ÑģÐ¿": 8170,
      "ÃŁen": 8171,
      "à¸ľ": 8172,
      "ÅĤo": 8173,
      "sum": 8174,
      "char": 8175,
      "Ġful": 8176,
      "onto": 8177,
      "anned": 8178,
      "ĠMov": 8179,
      "rage": 8180,
      "weise": 8181,
      "Ġmort": 8182,
      "Ġbeginning": 8183,
      "Il": 8184,
      "Ġfunctions": 8185,
      "agi": 8186,
      "Ġutiliz": 8187,
      "Ġcharg": 8188,
      "Ġpolicy": 8189,
      "Ġleader": 8190,
      "ĠìŀĪìĹĪ": 8191,
      "{eq": 8192,
      "){Ċ": 8193,
      "Ġstudies": 8194,
      "Ġran": 8195,
      "Ġfailed": 8196,
      "cy": 8197,
      "Ġeuro": 8198,
      "Ġà¤¥à¤¾": 8199,
      "Ġfourth": 8200,
      "She": 8201,
      "ĠEll": 8202,
      "ĠMatt": 8203,
      "enta": 8204,
      "Ġaircraft": 8205,
      "My": 8206,
      "Ġwalk": 8207,
      "Ġopport": 8208,
      "íķĺë©´ìĦľ": 8209,
      "aby": 8210,
      "ì¹ľ": 8211,
      "aved": 8212,
      "ãĥł": 8213,
      "Ġì»¤": 8214,
      "æł¡": 8215,
      "ĠVill": 8216,
      "assert": 8217,
      "ĠíĤ": 8218,
      "æĽ´": 8219,
      "ëĭµ": 8220,
      "Ġfore": 8221,
      "ĠProfess": 8222,
      "ologie": 8223,
      "Ġcab": 8224,
      "ĠRa": 8225,
      "Mar": 8226,
      "çķĮ": 8227,
      "}_{": 8228,
      "Ġ\"\"": 8229,
      "Ġthus": 8230,
      "éŁ³": 8231,
      "ĠGovernment": 8232,
      "ĠMexico": 8233,
      "ees": 8234,
      "Ġì²ł": 8235,
      "ĠBoard": 8236,
      "Ġà¹Ģà¸": 8237,
      "ĠPC": 8238,
      "ç¸": 8239,
      "atu": 8240,
      "ĠDa": 8241,
      "Rep": 8242,
      "vens": 8243,
      "Ã¼t": 8244,
      "Æ°Æ¡": 8245,
      "ylv": 8246,
      "oston": 8247,
      "Ġweight": 8248,
      "Ð¸ÑĩÐµÑģÐº": 8249,
      "ĠReal": 8250,
      "ĠJud": 8251,
      "dr": 8252,
      "elli": 8253,
      "Ġsummer": 8254,
      "VD": 8255,
      "Ġimmedi": 8256,
      "ë¦¬ê°Ģ": 8257,
      "ì¡Įëĭ¤": 8258,
      "Ġfemale": 8259,
      "Ġrot": 8260,
      "Ã¡rio": 8261,
      "Ġprobably": 8262,
      "Ġminor": 8263,
      "Ġdivision": 8264,
      "æĪĸ": 8265,
      "bed": 8266,
      "Ãºn": 8267,
      "!(\"": 8268,
      "Ġadopt": 8269,
      "ĠBlue": 8270,
      "ahn": 8271,
      "ä¸İ": 8272,
      "under": 8273,
      "íĥĦ": 8274,
      "éĻ¢": 8275,
      "ĠKey": 8276,
      "Ġbass": 8277,
      "Ġju": 8278,
      ")ìĿĺ": 8279,
      "Ġdistance": 8280,
      "ĠLeb": 8281,
      "_re": 8282,
      "Ġíŀĺ": 8283,
      "ĠØ§ÙĦØ³": 8284,
      "Ġë°±": 8285,
      "ĠID": 8286,
      "Ġcollect": 8287,
      "Ġgas": 8288,
      "ĠColumb": 8289,
      "Ġcontra": 8290,
      "Ġfriends": 8291,
      "Util": 8292,
      "ĉĉĉĉĉ": 8293,
      "Ġë§ģíģ¬": 8294,
      "house": 8295,
      "à¸¡à¸µ": 8296,
      "æ¼Ķ": 8297,
      "ancy": 8298,
      "ĠÐĳ": 8299,
      "See": 8300,
      "ĠTimes": 8301,
      "Ã¨me": 8302,
      "Ġinside": 8303,
      "Ùĳ": 8304,
      "Ġaccom": 8305,
      "ì°©": 8306,
      "į¨": 8307,
      "ims": 8308,
      "è»į": 8309,
      "ĠëĮĢíĨµëł¹": 8310,
      "ĠField": 8311,
      "è¦ĭ": 8312,
      "vin": 8313,
      "éĽĨ": 8314,
      "ĠItaly": 8315,
      "into": 8316,
      "å¾·": 8317,
      "Ġcomput": 8318,
      "åŁİ": 8319,
      "Ġá»Ł": 8320,
      "leh": 8321,
      "ìĦ±ìĿĦ": 8322,
      "Ġbrought": 8323,
      "Ġstarting": 8324,
      "å·²": 8325,
      "Ġmode": 8326,
      "ê·¸ëŀ¨": 8327,
      "ensions": 8328,
      "ĠEnter": 8329,
      "Call": 8330,
      "å¼Ģ": 8331,
      "Ġwindow": 8332,
      "Ġdemon": 8333,
      "anner": 8334,
      "_g": 8335,
      "HL": 8336,
      "eps": 8337,
      "host": 8338,
      "ĠíĺĦìŀ¬": 8339,
      "ĠÐĿ": 8340,
      "äº¤": 8341,
      "é§ħ": 8342,
      "Ã³s": 8343,
      "mond": 8344,
      "Ġweeks": 8345,
      "ĠLas": 8346,
      "Ãªs": 8347,
      "////////////////": 8348,
      "ĠLim": 8349,
      "come": 8350,
      "Ġê¸°ë¡Ŀ": 8351,
      "ĠCard": 8352,
      "ĠOrgan": 8353,
      "Ġtidak": 8354,
      "Ġwoman": 8355,
      "Ġwat": 8356,
      "ettings": 8357,
      "PC": 8358,
      "ĠPen": 8359,
      "ãģ¾ãģĻ": 8360,
      "81": 8361,
      "ban": 8362,
      "Ġcentre": 8363,
      "osoph": 8364,
      "Ġeasy": 8365,
      "ãģĹãģ¦ãģĦ": 8366,
      "æ¶": 8367,
      "Ġtechnology": 8368,
      "ultural": 8369,
      "Ġê¸¸": 8370,
      "ï¼Įä½Ĩ": 8371,
      "ĠSel": 8372,
      "olid": 8373,
      ".push": 8374,
      "ĠUm": 8375,
      "à¸²à¸Ļ": 8376,
      "à¤¿à¤°": 8377,
      "Ġspect": 8378,
      "sl": 8379,
      "ĠAccording": 8380,
      "Ãºblic": 8381,
      "Æ°Æ¡ng": 8382,
      "ĠØ§ÙĦØŃ": 8383,
      "Ġvocals": 8384,
      "à¤ķà¥įà¤·": 8385,
      "çİ°": 8386,
      "è¨Ģ": 8387,
      "å½¢": 8388,
      "Ste": 8389,
      "mission": 8390,
      "Ã¼k": 8391,
      "Ġok": 8392,
      "ÑĢÐ¾Ð²": 8393,
      "ĠStadt": 8394,
      "Ġgran": 8395,
      "TR": 8396,
      "ĠDaniel": 8397,
      "Ġinstalled": 8398,
      "Ġbuildings": 8399,
      "176": 8400,
      "à¤ķà¤¾à¤°": 8401,
      "nam": 8402,
      "Ġmovement": 8403,
      "Ġdrive": 8404,
      "');Ċ": 8405,
      "ously": 8406,
      "Ġfarm": 8407,
      "ÙĬØ¯": 8408,
      "ĠìĤ¬íļĮ": 8409,
      "parent": 8410,
      "OW": 8411,
      "à¤¾à¤ĩ": 8412,
      "Ġforward": 8413,
      "å·±": 8414,
      "Ġwidth": 8415,
      "ĠìĿ´ìĸ´": 8416,
      "ĠCat": 8417,
      "ĠSince": 8418,
      "Post": 8419,
      "elijk": 8420,
      "Ġdigital": 8421,
      "ĠsÃ£o": 8422,
      "Ġalla": 8423,
      "oni": 8424,
      "ĠScot": 8425,
      "Ġprograms": 8426,
      "piel": 8427,
      "ãĢĤâĢĿ": 8428,
      "Ġmovie": 8429,
      "ĠAk": 8430,
      "Ġëª¨ëĵł": 8431,
      "Ġmechan": 8432,
      "ester": 8433,
      "Ġsports": 8434,
      "Ġmethods": 8435,
      "Ġunique": 8436,
      "Ġactivities": 8437,
      "ahan": 8438,
      "Ġìłĳ": 8439,
      "èī²": 8440,
      "iciÃ³n": 8441,
      "Ġvs": 8442,
      "ĠTotal": 8443,
      "Ġ^": 8444,
      "ĠPower": 8445,
      "ĠNetwork": 8446,
      "åģļ": 8447,
      "Ġrandom": 8448,
      "OV": 8449,
      "Ġdirectly": 8450,
      "Ġê¶Į": 8451,
      "};Ċ": 8452,
      "ì»¤": 8453,
      "Ġ|Ċ": 8454,
      "Ġzwe": 8455,
      "Ð½ÑĭÐµ": 8456,
      "æĶ¹": 8457,
      "ë¦¬ìĬ¤": 8458,
      "Ġrat": 8459,
      "-a": 8460,
      "gg": 8461,
      "aca": 8462,
      "Ġincl": 8463,
      "Ġscored": 8464,
      "Ġtrying": 8465,
      "ĠSin": 8466,
      "Ġtried": 8467,
      "ocol": 8468,
      "iful": 8469,
      "EST": 8470,
      "GB": 8471,
      "arian": 8472,
      "Ġê²°ê³¼": 8473,
      "Ġow": 8474,
      "fn": 8475,
      "å·Ŀ": 8476,
      "Ġ}čĊ": 8477,
      "\"]": 8478,
      "ĠCentre": 8479,
      "ĠPeople": 8480,
      "Ġfamilies": 8481,
      "ĠPub": 8482,
      "Ġlack": 8483,
      "ï¼Ľ": 8484,
      "ĠAlbum": 8485,
      "ĠCommittee": 8486,
      "ulations": 8487,
      "vas": 8488,
      "ĠUnder": 8489,
      "Ã¡ng": 8490,
      "á»ģ": 8491,
      "Âº": 8492,
      "ĠrÃ©g": 8493,
      "zw": 8494,
      "Ġmachine": 8495,
      "ername": 8496,
      "iring": 8497,
      "Ġassum": 8498,
      "ĠHal": 8499,
      "Ġì¸": 8500,
      "ìĿĳ": 8501,
      "Stream": 8502,
      "ollowing": 8503,
      "pri": 8504,
      "ĠJones": 8505,
      "ĠSummer": 8506,
      "urban": 8507,
      "mos": 8508,
      "Ð½Ð¾Ð³Ð¾": 8509,
      "Listener": 8510,
      "Ġê¸°ìĹħ": 8511,
      "à¹Ħà¸Ķà¹ī": 8512,
      "Ġauss": 8513,
      "erk": 8514,
      "ĠEpis": 8515,
      "ĠNach": 8516,
      "ê°Ī": 8517,
      "Ġwide": 8518,
      "å½±": 8519,
      "ç¯": 8520,
      "Ġtold": 8521,
      "åĳ¢": 8522,
      "ĠìĹĪ": 8523,
      "ãĥĵ": 8524,
      "92": 8525,
      "á»¥": 8526,
      "?ĊĊ": 8527,
      "()ĊĊ": 8528,
      "ç§ĳ": 8529,
      "Ġíļ¨": 8530,
      "Ġfirm": 8531,
      "ildren": 8532,
      "äº¬": 8533,
      "åĶ": 8534,
      "ĠíĮ¨": 8535,
      "Ġprec": 8536,
      "ĠëģĿ": 8537,
      "struct": 8538,
      "Ġsinger": 8539,
      "andon": 8540,
      "ç©º": 8541,
      "Point": 8542,
      "Ġenjoy": 8543,
      "ĠJes": 8544,
      "Ġoperation": 8545,
      "Ġtraditional": 8546,
      "size": 8547,
      "ĠArab": 8548,
      "Ġbroadcast": 8549,
      "_to": 8550,
      "ĠIndones": 8551,
      "à¤²à¥ĩ": 8552,
      "ĠValley": 8553,
      "à¸Ĥà¸Ńà¸ĩ": 8554,
      "ÐµÐ½ÑĤ": 8555,
      "enda": 8556,
      "æł¼": 8557,
      "ç¨ĭ": 8558,
      "Ġgeb": 8559,
      "ĠÐĵ": 8560,
      "ĠPass": 8561,
      "Ġclean": 8562,
      "Button": 8563,
      "Ģë¡ľ": 8564,
      "Ġfait": 8565,
      "Ġsum": 8566,
      "Ġë°ĿíĺĶëĭ¤": 8567,
      "Ġtah": 8568,
      "Ġheart": 8569,
      "Ġwanted": 8570,
      "ë²Į": 8571,
      "}{\\": 8572,
      "ľ´": 8573,
      "Ġprogress": 8574,
      "AF": 8575,
      "ĠRun": 8576,
      "Ġscience": 8577,
      "-r": 8578,
      "Ġà¤¹à¥Ģ": 8579,
      "Det": 8580,
      "Ġsimply": 8581,
      "esh": 8582,
      "Ġëĵ±ìĿĦ": 8583,
      "Ġfu": 8584,
      "Ġnorm": 8585,
      "ialize": 8586,
      "ateur": 8587,
      "ĠGre": 8588,
      "Ġur": 8589,
      "Ġlarger": 8590,
      "Ġearlier": 8591,
      "Ġì²«": 8592,
      "Ġago": 8593,
      "Ġsupported": 8594,
      "Ġcondition": 8595,
      "97": 8596,
      "å¥¹": 8597,
      "Ġtrav": 8598,
      "ĠìķĬëĬĶ": 8599,
      "ĠSom": 8600,
      "rame": 8601,
      "ÄŁi": 8602,
      "ĠìĹĨëĬĶ": 8603,
      "Ġauth": 8604,
      "ĠÃľ": 8605,
      "ãģ§ãģĤãĤĭ": 8606,
      "ients": 8607,
      "ìĿ´ì§Ģ": 8608,
      "Ġsecurity": 8609,
      "mt": 8610,
      "Ġsymbol": 8611,
      "å·ŀ": 8612,
      "ĠVo": 8613,
      "ĠDirector": 8614,
      "Ġphil": 8615,
      "car": 8616,
      "Ġbeaut": 8617,
      "ìĻķ": 8618,
      "130": 8619,
      "Ġinterview": 8620,
      "Ref": 8621,
      "kg": 8622,
      "Ġlimited": 8623,
      "End": 8624,
      "Ġdestroy": 8625,
      "aza": 8626,
      "ĠÐĶ": 8627,
      "ĠíħĮ": 8628,
      "Ġcollabor": 8629,
      "ëł¥ìĿĦ": 8630,
      "Ġapproximately": 8631,
      "ĠRay": 8632,
      "ê³³": 8633,
      "Ġhousehold": 8634,
      "Ġsea": 8635,
      "ĠWilliams": 8636,
      "Ġíı¬íķ¨": 8637,
      "iÃ¨re": 8638,
      "ht": 8639,
      "isf": 8640,
      "ëĲł": 8641,
      "Ġfinancial": 8642,
      "ĠStan": 8643,
      "Ġê·¸ë¦¬ê³ł": 8644,
      "éģ¸": 8645,
      "Ġentry": 8646,
      "ĠaÃ±os": 8647,
      "Ãªme": 8648,
      "91": 8649,
      "anie": 8650,
      ")ëĬĶ": 8651,
      "ĠLie": 8652,
      "ĠFern": 8653,
      "ĠType": 8654,
      "Builder": 8655,
      "Source": 8656,
      "hol": 8657,
      "Ġáħ¨": 8658,
      "Ġgrande": 8659,
      "Pre": 8660,
      "ĠÃģ": 8661,
      "aling": 8662,
      "ë¡ľìļ´": 8663,
      "Ġfif": 8664,
      "Ġven": 8665,
      "åĨį": 8666,
      "Ġspent": 8667,
      "ĠCross": 8668,
      "Ġperfect": 8669,
      "Ġê°ĻìĿ´": 8670,
      "ê¸°ëĬĶ": 8671,
      "PE": 8672,
      "sta": 8673,
      "isk": 8674,
      "Ġdit": 8675,
      "Ġrelativ": 8676,
      "äºĽ": 8677,
      "eri": 8678,
      "Ġedition": 8679,
      "Ġchannel": 8680,
      "Ġstra": 8681,
      "wise": 8682,
      "ĠgÃ¶": 8683,
      "ĠìĹ°êµ¬": 8684,
      "Ġproducer": 8685,
      "Ġhighest": 8686,
      "\",\"": 8687,
      "Ab": 8688,
      "Ġà¤¹à¥ģà¤": 8689,
      "issions": 8690,
      "Ġlang": 8691,
      "Ã¨res": 8692,
      "mathbb": 8693,
      "Ġpremier": 8694,
      "Ġmission": 8695,
      "bec": 8696,
      "ìŀĪëĬĶ": 8697,
      "lambda": 8698,
      "aires": 8699,
      "ç²": 8700,
      "ĠPos": 8701,
      "å¡": 8702,
      "aje": 8703,
      "ĠëĺĲëĬĶ": 8704,
      "Ġseem": 8705,
      "ĠëĲł": 8706,
      "ĠVen": 8707,
      "Ġmedical": 8708,
      "Ġíĸ¥": 8709,
      "next": 8710,
      "Ġpoet": 8711,
      "Ġsaf": 8712,
      "\\\\": 8713,
      "æĮģ": 8714,
      "erra": 8715,
      "Ġë©´": 8716,
      "ĠLord": 8717,
      "Ġì¡´": 8718,
      "Ġgenerally": 8719,
      "Ġupd": 8720,
      "ĠCamb": 8721,
      "Ġincreased": 8722,
      "à¸±à¸ģ": 8723,
      "ĠHam": 8724,
      "(int": 8725,
      "ĠBrazil": 8726,
      "'h": 8727,
      "(i": 8728,
      "ëĲĲëĭ¤": 8729,
      "Ġopening": 8730,
      "ĠSoviet": 8731,
      "ëĺĲ": 8732,
      "Ġcensus": 8733,
      "åĽĽ": 8734,
      "Ã±o": 8735,
      "iÄĻ": 8736,
      "nu": 8737,
      "ÃŃc": 8738,
      "Ġchem": 8739,
      "Ġaap": 8740,
      "Ġinvestig": 8741,
      "Ġpu": 8742,
      "Ġile": 8743,
      "âĶ": 8744,
      "ennis": 8745,
      "ë´ī": 8746,
      "Ġtournament": 8747,
      "onym": 8748,
      "keit": 8749,
      "private": 8750,
      "çĭ": 8751,
      "ÑģÐºÐ¸Ð¹": 8752,
      "ìķ¡": 8753,
      "128": 8754,
      "ç»ı": 8755,
      "Ġlab": 8756,
      "_w": 8757,
      "emplate": 8758,
      "ifying": 8759,
      "èĩªå·±": 8760,
      "Sp": 8761,
      "Ġusers": 8762,
      "Ġpattern": 8763,
      "ĠìłĪ": 8764,
      "otes": 8765,
      "%)": 8766,
      "Eng": 8767,
      "Ġíģ´": 8768,
      "ĠBibli": 8769,
      "83": 8770,
      "ĠDeb": 8771,
      "SC": 8772,
      "riage": 8773,
      "ëĲĺê³ł": 8774,
      ".H": 8775,
      "Ġì¤ĳêµŃ": 8776,
      "Ġban": 8777,
      "ĠpiÃ¹": 8778,
      "Ġwy": 8779,
      "rong": 8780,
      "unched": 8781,
      "Ġwinning": 8782,
      "actions": 8783,
      "çĲĥ": 8784,
      "]ĊĊ": 8785,
      "ìĭľëĬĶ": 8786,
      "orning": 8787,
      "ĠSelf": 8788,
      "ĠJosÃ©": 8789,
      "Ġenter": 8790,
      "bury": 8791,
      "ç½®": 8792,
      "Ø§Ùģ": 8793,
      "osh": 8794,
      "Ġasked": 8795,
      "ãĤº": 8796,
      "ëĳ": 8797,
      "Ġdeutsch": 8798,
      "ĠngÆ°á»Ŀi": 8799,
      "Ġexperiment": 8800,
      "Ġperman": 8801,
      "Ġmehr": 8802,
      "oro": 8803,
      "aro": 8804,
      "Ġconnection": 8805,
      "weet": 8806,
      "area": 8807,
      "Ġì¢ĭìĿĢ": 8808,
      "hm": 8809,
      "(M": 8810,
      "zeich": 8811,
      "ĠCarolina": 8812,
      "ĠDu": 8813,
      "weight": 8814,
      "ÃŁe": 8815,
      "Ġeffects": 8816,
      "ĠThen": 8817,
      "ëĿ¼ìĿ´": 8818,
      "Ġhi": 8819,
      "Ġtree": 8820,
      "ieren": 8821,
      "ĠArm": 8822,
      "Ġended": 8823,
      "ìŀ¥ìĿ´": 8824,
      "ìĹĨ": 8825,
      "93": 8826,
      "Ġ};Ċ": 8827,
      "94": 8828,
      "Ġconcent": 8829,
      "ìľ¼ëĤĺ": 8830,
      "ĠNavy": 8831,
      "íĮ¨": 8832,
      "é¤": 8833,
      "ëī´": 8834,
      "ulo": 8835,
      "102": 8836,
      "-re": 8837,
      "à¹ĥà¸«": 8838,
      "ĠLive": 8839,
      "System": 8840,
      "DF": 8841,
      "ãĥģ": 8842,
      "éĢ£": 8843,
      "Ġpero": 8844,
      "Pe": 8845,
      "ë¦´": 8846,
      "Ġmatches": 8847,
      "Ġcontro": 8848,
      "Ġoil": 8849,
      "ĠAu": 8850,
      "ìķĦìļĶ": 8851,
      "Ġpassed": 8852,
      "isme": 8853,
      "space": 8854,
      "Ġook": 8855,
      ".J": 8856,
      "ëĤ¬": 8857,
      "Ġchart": 8858,
      "è¿ĺ": 8859,
      "lock": 8860,
      "íĨ": 8861,
      "ãĥĬ": 8862,
      "bot": 8863,
      "atro": 8864,
      "oding": 8865,
      "ĠColl": 8866,
      "Ġnou": 8867,
      "Ġmedal": 8868,
      "ĠCorpor": 8869,
      "Ġìĸ¼": 8870,
      "éĩİ": 8871,
      "åĻ": 8872,
      "Ġprevent": 8873,
      "Ã¡ri": 8874,
      "gio": 8875,
      ".html": 8876,
      "Ð½Ð¾ÑģÑĤ": 8877,
      "Ġmenj": 8878,
      "Ġplaces": 8879,
      "ĠAM": 8880,
      "Ġlearning": 8881,
      "ĠProject": 8882,
      "Ġleave": 8883,
      "à¤¾à¤ª": 8884,
      "~~~~": 8885,
      "ĠKir": 8886,
      "style": 8887,
      "/d": 8888,
      "ĠBattle": 8889,
      "Token": 8890,
      "à¤¾à¤Ī": 8891,
      "sg": 8892,
      "Ġitems": 8893,
      "ĠnÃły": 8894,
      "lij": 8895,
      "Ġtrade": 8896,
      "ez": 8897,
      "ĠLiter": 8898,
      "èĭ±": 8899,
      "ĠAlf": 8900,
      "Ã¼d": 8901,
      "Ġcompar": 8902,
      "uta": 8903,
      "åĬ¨": 8904,
      "organ": 8905,
      "ÑĨÐ¸": 8906,
      "ĠFig": 8907,
      "qrt": 8908,
      "Ġë³¼": 8909,
      "ĠOR": 8910,
      "Ġsyn": 8911,
      "ĠTem": 8912,
      "eto": 8913,
      "ĠØ¯": 8914,
      "¨ìĸ´": 8915,
      "Ġsed": 8916,
      "Ġmere": 8917,
      "Ġconsole": 8918,
      "ÑĢÐ°Ð½": 8919,
      "Ġê¼": 8920,
      "ĠArgent": 8921,
      "ersey": 8922,
      "Ġriver": 8923,
      "âĸ": 8924,
      "ĠLy": 8925,
      "ĠNight": 8926,
      "enen": 8927,
      "Ġvom": 8928,
      "enses": 8929,
      "Ġì¶ķêµ¬": 8930,
      "urance": 8931,
      "Ġarray": 8932,
      "ĠFoundation": 8933,
      "server": 8934,
      "Ġconstant": 8935,
      "ĠNorthern": 8936,
      "Ext": 8937,
      "udad": 8938,
      "á»Ļc": 8939,
      "iny": 8940,
      "Start": 8941,
      "âĢĺ": 8942,
      "Ġdiss": 8943,
      "Ġdrug": 8944,
      "Ġsites": 8945,
      "emy": 8946,
      "Ġaber": 8947,
      "87": 8948,
      "Ġëľ": 8949,
      "ĠEle": 8950,
      "æĴ": 8951,
      "Ġpsych": 8952,
      "èªŀ": 8953,
      "Ġlen": 8954,
      "Ġsau": 8955,
      "Ġsister": 8956,
      "alo": 8957,
      "Ġlevels": 8958,
      "mselves": 8959,
      "Ne": 8960,
      "ounter": 8961,
      "Ġdeep": 8962,
      "ĠCa": 8963,
      "Ġsurround": 8964,
      "pers": 8965,
      "III": 8966,
      "beta": 8967,
      "vant": 8968,
      "_pro": 8969,
      "adel": 8970,
      "inet": 8971,
      "Ġparents": 8972,
      "ĠSpecial": 8973,
      "ĠCop": 8974,
      "Ġhan": 8975,
      "íĥĪ": 8976,
      "Ġalc": 8977,
      "æĽ¸": 8978,
      "ronic": 8979,
      "John": 8980,
      "Ġple": 8981,
      "Ġtask": 8982,
      "(e": 8983,
      "é©": 8984,
      "abeth": 8985,
      "168": 8986,
      "æ´»": 8987,
      "allenge": 8988,
      "Ġprison": 8989,
      "åĸº": 8990,
      "æ»": 8991,
      "Ġagric": 8992,
      "Ġà¤Ĺà¤¯à¤¾": 8993,
      "ĠStadium": 8994,
      "ĠíĹĪ": 8995,
      "Ġpes": 8996,
      "Ġdont": 8997,
      "çĻ¼": 8998,
      "(re": 8999,
      "Module": 9000,
      "Ġmeeting": 9001,
      "ë§ģ": 9002,
      "ãģ«ãģ¯": 9003,
      "ĠJohnson": 9004,
      "Ġsomeone": 9005,
      "ĠUnter": 9006,
      "ĠBoston": 9007,
      "Ġoccas": 9008,
      "terior": 9009,
      "Ġsan": 9010,
      "ĠLab": 9011,
      "Ret": 9012,
      "Ġdoc": 9013,
      "åı²": 9014,
      "Ġpent": 9015,
      "izes": 9016,
      "ech": 9017,
      "ĠÐ²Ñĭ": 9018,
      "ĠprÃ©s": 9019,
      "ĠSteph": 9020,
      "ĠWay": 9021,
      "Ġacadem": 9022,
      "lad": 9023,
      "ĠIV": 9024,
      "ĠDeutsch": 9025,
      "Ġprogramm": 9026,
      "alleng": 9027,
      "ĠEdward": 9028,
      "race": 9029,
      "ĠìĤ¬ìĭ¤": 9030,
      "IF": 9031,
      "Ġtouch": 9032,
      "illy": 9033,
      "heast": 9034,
      "inen": 9035,
      "Ã¼m": 9036,
      "ĠPlan": 9037,
      "Ġoverall": 9038,
      "Ġdivid": 9039,
      "Ġisland": 9040,
      "ĠPers": 9041,
      "Ġseems": 9042,
      "Ġlic": 9043,
      "ĠØ±": 9044,
      "ĠìŀĪìĹĪëĭ¤": 9045,
      "UM": 9046,
      "ĠKr": 9047,
      "Ġchi": 9048,
      "ÑĥÑİ": 9049,
      "ds": 9050,
      "åŀĭ": 9051,
      "TP": 9052,
      "ĽĪ": 9053,
      "à¸ĵ": 9054,
      "```": 9055,
      "Ġfi": 9056,
      ";čĊčĊ": 9057,
      "ĠOffice": 9058,
      "ĠOx": 9059,
      "Ġdelle": 9060,
      "ĠAle": 9061,
      "ĠMedia": 9062,
      "Ġìī": 9063,
      "ĠìŀĪìĸ´": 9064,
      "Don": 9065,
      "Ø¸": 9066,
      "ĠCas": 9067,
      "Ġthemselves": 9068,
      "ĠÂ£": 9069,
      "ĠWall": 9070,
      "Ä±z": 9071,
      "åĪĹ": 9072,
      "ãģ¨ãģĹãģ¦": 9073,
      "Ġëħ¼": 9074,
      "ëĦĲ": 9075,
      "áº§n": 9076,
      "img": 9077,
      "ilon": 9078,
      "ĠUN": 9079,
      "ëįĶëĿ¼": 9080,
      "åħī": 9081,
      "eros": 9082,
      "ĠAuf": 9083,
      "Ġsave": 9084,
      "Ġrestaur": 9085,
      "ÙĪÙħ": 9086,
      "_path": 9087,
      "Ġli": 9088,
      "cle": 9089,
      "ãģ«ãĤĪ": 9090,
      "Ġsig": 9091,
      "ĠìĥģíĻ©": 9092,
      "Ã¯": 9093,
      "èĢĥ": 9094,
      "âĢĻm": 9095,
      "avior": 9096,
      "Ġboot": 9097,
      "åı¤": 9098,
      "åĪĿ": 9099,
      "])": 9100,
      "gel": 9101,
      "uma": 9102,
      "ĠDemocratic": 9103,
      "bro": 9104,
      "Ġtermin": 9105,
      "Ġfigure": 9106,
      "Ġking": 9107,
      "ichte": 9108,
      "ĠìĻķ": 9109,
      "Ġnet": 9110,
      "ĠÐ¿ÐµÑĢ": 9111,
      "ìĦ±ìĿ´": 9112,
      "Ġì£": 9113,
      ".de": 9114,
      "ĠëŃ": 9115,
      "Read": 9116,
      "Ġshot": 9117,
      "ansas": 9118,
      "Ġmemory": 9119,
      "Ġhus": 9120,
      "ĠêµĲìľ¡": 9121,
      "stract": 9122,
      "Ġwid": 9123,
      "ĠRog": 9124,
      "ëĥĲ": 9125,
      "Ġcharge": 9126,
      "Ð´Ð°": 9127,
      "ĠÑĢÐµ": 9128,
      "Part": 9129,
      "bach": 9130,
      "Ġcz": 9131,
      "Ġgives": 9132,
      "æµģ": 9133,
      "idden": 9134,
      "uled": 9135,
      "theta": 9136,
      "Ġevidence": 9137,
      "Ġemail": 9138,
      ":ĊĊĊ": 9139,
      "Ġmicro": 9140,
      "Ġfine": 9141,
      "Ġproperties": 9142,
      "Ġà¤ħà¤¨": 9143,
      "Ġcontribut": 9144,
      "ĠPak": 9145,
      "akers": 9146,
      "Ġcorn": 9147,
      "Ġworden": 9148,
      "Ġhier": 9149,
      "App": 9150,
      "Ġstations": 9151,
      "Override": 9152,
      "Ġappears": 9153,
      "uen": 9154,
      "âĢĻve": 9155,
      "ĠTri": 9156,
      "Ġbomb": 9157,
      "Ġchampionship": 9158,
      "iÄĩ": 9159,
      "ruit": 9160,
      "ĠHard": 9161,
      "Table": 9162,
      "Ġmiddle": 9163,
      "Ġay": 9164,
      "_j": 9165,
      "atas": 9166,
      "ĠKal": 9167,
      "Bar": 9168,
      "è©±": 9169,
      "Ġactivity": 9170,
      "ëĵ¤ìĹĲê²Į": 9171,
      "Ġmeaning": 9172,
      "Ġradi": 9173,
      "ĠRussia": 9174,
      "à¤ķà¤°": 9175,
      "Ġmotor": 9176,
      "Ġvec": 9177,
      "enty": 9178,
      "Ġfocus": 9179,
      "Ġnoch": 9180,
      "140": 9181,
      "ertain": 9182,
      "ìłķìĿĦ": 9183,
      "Page": 9184,
      "èİ": 9185,
      "ĠIsrael": 9186,
      "ÙĦÙĥ": 9187,
      "ìķĻ": 9188,
      "Ġwhom": 9189,
      "AME": 9190,
      "ĠìĹ¬ëŁ¬": 9191,
      "Ġfle": 9192,
      "ensor": 9193,
      "Ġdess": 9194,
      "Ġfit": 9195,
      "Ġpresented": 9196,
      "_R": 9197,
      "osto": 9198,
      "Ġinterpret": 9199,
      "Ġeconomic": 9200,
      "å°Ĩ": 9201,
      "Ġà¤Ĩà¤ª": 9202,
      "\"),": 9203,
      "Sup": 9204,
      "Ġtent": 9205,
      "Ġê°ĸ": 9206,
      "Ġquestions": 9207,
      "Ġbatt": 9208,
      "Ġrecon": 9209,
      "ĠExt": 9210,
      "áºŃt": 9211,
      "unes": 9212,
      "ĠØ§ÙĦÙĤ": 9213,
      "ëħĲ": 9214,
      "ĠDom": 9215,
      "ĠEvent": 9216,
      "ĠAlthough": 9217,
      "TA": 9218,
      "asse": 9219,
      "ads": 9220,
      "Ġì§Ī": 9221,
      "atie": 9222,
      "Ġrepresented": 9223,
      "åı·": 9224,
      "more": 9225,
      "ĠHy": 9226,
      "odo": 9227,
      "ĠDown": 9228,
      "à¹Ģà¸£": 9229,
      "åħĭ": 9230,
      "inds": 9231,
      "ĠĠĠĠĠĠĠĠĠĠĠĠĠĠ": 9232,
      "Ġtreatment": 9233,
      "ĠpaÃŃs": 9234,
      "Ġfollows": 9235,
      "Ġreserv": 9236,
      "ĠSund": 9237,
      "agne": 9238,
      "Ġhac": 9239,
      "Ġletter": 9240,
      "(r": 9241,
      "Ġphysical": 9242,
      "vec": 9243,
      "ìĿ´ë¦Ħ": 9244,
      "Ġfloat": 9245,
      "Ġstream": 9246,
      "íķĺì§Ģë§Į": 9247,
      "Ġcoun": 9248,
      "Ãºs": 9249,
      "ymbol": 9250,
      "Ġvariety": 9251,
      "jan": 9252,
      "Number": 9253,
      "Ġpossib": 9254,
      "ìĥĪ": 9255,
      "ĠLibrary": 9256,
      "ĠìłľíĴĪ": 9257,
      "è¨ĺ": 9258,
      "Ġremain": 9259,
      "sa": 9260,
      "Ġmagazine": 9261,
      "à¥ģà¤²": 9262,
      "(C": 9263,
      "Ġimages": 9264,
      "ë¥ł": 9265,
      "Ùı": 9266,
      "ä½ı": 9267,
      "ì§ľ": 9268,
      "Ġìłľê³µ": 9269,
      "Ġvel": 9270,
      "background": 9271,
      "output": 9272,
      "Ġrule": 9273,
      "________": 9274,
      "Ġcaused": 9275,
      "ESS": 9276,
      "Ġsegu": 9277,
      "leri": 9278,
      "Ġgrowth": 9279,
      "Ġsources": 9280,
      "ydro": 9281,
      "Ġbhi": 9282,
      "ĠKen": 9283,
      "Ġcoast": 9284,
      "During": 9285,
      "Ġbasis": 9286,
      "Ġfields": 9287,
      "zu": 9288,
      "Ġolder": 9289,
      "ĠBelg": 9290,
      "ä»Ĭ": 9291,
      "PR": 9292,
      "rig": 9293,
      "Ġsouthern": 9294,
      "arde": 9295,
      "ĠStation": 9296,
      "à¸ĭ": 9297,
      "ëĮĢíķľ": 9298,
      "Men": 9299,
      "Ġproposed": 9300,
      "ĠZeit": 9301,
      "only": 9302,
      "ĠìĿ´ë¦Ħ": 9303,
      "Ġawait": 9304,
      "Ġcommission": 9305,
      "Ġhttps": 9306,
      "Ġparticularly": 9307,
      "Ġitu": 9308,
      "ĠÐŀ": 9309,
      "ĠJr": 9310,
      "ĠsÃ©": 9311,
      "ĠWales": 9312,
      "ekt": 9313,
      "ï¼ĮæĪĳ": 9314,
      "Ġconstitu": 9315,
      "ìĿ´ìĬ¤": 9316,
      "Ġforms": 9317,
      "áº·": 9318,
      "Ġinternal": 9319,
      "Ġjest": 9320,
      "Ġvolume": 9321,
      "Ġmatter": 9322,
      "Ġbud": 9323,
      "ìĥģìĿĦ": 9324,
      "ĠCivil": 9325,
      "leich": 9326,
      "rows": 9327,
      "Ġconsum": 9328,
      "ĠDou": 9329,
      "stream": 9330,
      "ĠConference": 9331,
      "ĠJon": 9332,
      "yo": 9333,
      "ê¸´": 9334,
      "Prov": 9335,
      "Ġproduce": 9336,
      "Ġnorthern": 9337,
      "Ġquarter": 9338,
      "])Ċ": 9339,
      "Ġsab": 9340,
      "emble": 9341,
      "à¤¾à¤ķ": 9342,
      "ĠìķĦëĭĪëĿ¼": 9343,
      "Ġsá»ĳ": 9344,
      "Ġ``": 9345,
[...]
